11111011
11110010
11111111
00000001
11110110
00000000
11111101
11101001
11011101
00000000
11010111
11110110
11101101
11110100
11100111
11001011
00000000
00000000
11100010
10111100
11010011
00001010
11111111
00100100
00011000
11111101
11111101
11111110
11110010
00000000
00011001
11001111
