11110001
00000001
11111111
11111111
11111110
11111001
11110001
11111000
11111100
00000100
11111101
11111011
11110011
00001000
11110110
11111111
11111101
11111100
11110011
11111010
11111011
00000011
11110000
11111011
11101101
11111010
00000001
11111100
11111110
11110001
00000101
11110110
11111000
11101111
11111000
11111001
11110000
11110100
11110010
00000010
11110010
11111111
11111111
11101111
00001000
11111111
11111100
11101101
11110110
11110100
11110111
11111010
11111100
00000001
11110010
11110101
11111001
11111000
11110000
11111111
11110101
00000000
00000011
11111001
