10111001
01010010
01101100
11111101
11101010
01101100
11011011
11011011
00101001
11001011
11000000
11101100
01010011
01010011
11011011
11111101
01010000
01010000
11011010
11010001
11010010
11011011
11011010
01001010
01101100
01101011
01011001
11100011
11111000
11111000
11111011
01011011
01000010
11001010
01101011
01101011
10111000
11101011
11101100
01000001
01101011
01101011
00000000
11101001
00011000
11010011
11100100
01010010
11111100
00011000
01101100
11111101
01101100
01011100
11010000
11100001
10100000
01000010
01010010
01100010
11000010
00110000
11111101
01010010
11101010
01101010
01001000
11111101
01000000
01010010
00011000
00110001
01011011
00100000
11101011
00110000
01011011
11011011
10111010
01011100
01010000
11100100
11100100
11111000
01101100
01001010
11100100
01101001
01010010
11101011
00011000
00000000
11010010
11000001
01011011
10101001
01001010
11011011
11001010
01010011
01010000
11100100
11010010
01000010
01001011
11011100
11010011
01101011
11001010
11100001
11010011
01101100
10110001
01001010
10101001
01010010
01101100
00111010
01010010
11011010
01010011
01011011
11100100
01101011
11011011
11100011
11000010
00111001
01011011
11100010
01011011
11011100
01101101
01010010
11011011
10011000
01011011
01101100
00110001
10101001
11100011
01010001
01010010
00100000
01000001
01010011
01101001
00101001
10101001
11010010
11101010
11111110
11101011
11101100
11111101
11010010
11111000
01010011
01100100
11100011
11100011
00101000
01011000
11010001
11001010
01101100
11100011
11011011
01100000
00110001
00110001
10101000
00111000
01011100
01010011
00101001
10111010
01011100
00111001
01010011
01101100
10011000
00111001
11001001
11101100
01010010
11010011
01101011
10101000
11101100
01100001
01101100
11111000
11111000
11111011
11001010
01011001
11000010
11101011
11101011
11000000
11010011
11001001
11111101
01101000
01101100
00100000
00111001
01001010
11100011
01000001
11100011
11101101
11100100
11010011
01000001
11101011
11111010
01101100
01010011
11111000
10111000
01010010
11010010
11111101
01001010
11101100
01001000
11010010
11101010
01010010
11000010
01011001
01101010
01010011
01011000
00110001
11011010
01101101
01101100
11101010
11100100
11010001
01101000
11000001
11100010
01101011
11101100
11010011
01001011
11111100
11011000
11100010
10111001
01101001
11011001
01010010
00110001
01011010
11000001
01001010
01100010
01101100
11011010
01101011
00111001
11111000
11111100
11111000
11011010
11001010
01101011
11100011
11100100
11111011
11100100
11011100
01101100
11010011
01000001
00110001
01011100
11011011
10100000
01000001
01000010
11001011
01011010
