01011011
01011100
01001010
01001011
11000000
01001001
00100000
01010000
01101011
10101000
10011000
11011001
00101000
11010011
11000010
11011011
11011011
11011011
01011011
00111010
00111010
01011010
11000010
11101101
11000010
11010011
11011000
11000010
11011011
10011000
00000000
01011011
01010011
11001000
10110000
10110000
01011011
10111001
10111001
01101100
01001011
11001010
00100000
11011000
11101100
11101100
10101001
01000010
11101101
11001011
11101101
00111010
01010011
01011010
01101011
00100000
01001010
01111110
01011011
10100000
01011011
01001010
10111010
01010010
01001010
01001000
01001010
11010010
10101001
01011011
01000010
01010011
00011000
01001010
10110000
11011011
11001001
11010011
11011000
00011000
00110000
01010001
11011011
11101010
01010011
11101100
11010001
10110000
11011011
11000010
10101001
10101001
00101000
00101000
10111010
10111001
00100000
00101001
00101001
01001010
00000000
11011011
00110001
00110001
10110001
00111010
01001010
11011010
01000010
00111000
01001010
01011010
11011011
11010011
11000010
11101100
11101100
11010011
00111000
10100000
11101100
01000010
11001010
01101010
01010000
01010010
10101000
00111010
10111010
00111001
01000000
00100000
01000010
01000010
00110001
11010000
10101001
10101001
11000010
10100000
00111001
01000010
01001001
00111010
00111010
11010011
10111001
01011010
01001010
01001010
10100000
11001001
11001001
11010010
00111010
00000000
11111101
11010011
11010010
01010011
01101011
01100011
01011010
10111010
11001010
01001010
11010010
11000010
01101100
01010011
01010001
10101001
01000010
01011001
11001011
00111000
01000000
11000000
11101101
11010011
01000001
00101001
11010010
01011010
01011100
01010000
01000010
01011001
01011010
11001011
11001010
11010010
10100000
11101100
10101000
11101010
11100011
11001011
01011011
11101100
11010011
01010011
11011100
11011010
10111001
11000010
11001010
11010000
11101100
11011001
11010011
11010010
11011011
11000010
11010011
11011010
00100000
11101011
11100100
11101001
11111000
11101010
11111110
11100011
10111001
10011000
01001011
01011011
01001011
00011000
10110001
01011100
01010011
01010010
01101010
10101001
11011010
01010000
00101000
01001010
11000010
00011000
10101000
11100011
11000010
00101000
11101000
10111000
10110000
01010011
01010011
01011010
00111000
00011000
01010011
10110001
00111010
00110000
00000000
01000010
01010011
11010000
11101100
11011010
00110000
00101001
10110000
01001000
10111000
11001000
10110001
11001011
11001001
11000010
11010011
11011011
11010010
11101100
11010011
10101000
01001010
01011010
00111010
00111000
00111010
11001000
10101001
10011000
00111010
00111010
11001011
10111000
00101001
10111001
11001011
11001011
10101001
00101000
00101000
10011000
11001010
10110001
10111010
10101001
11001010
00101000
11001011
00101000
00100000
00101000
10111000
10110001
10101000
00111010
00011000
00111010
10100000
10110001
11001011
10111001
11001011
00101000
10111010
10011000
00100000
10111000
10101000
10111000
10110001
00101000
10111001
00101000
00111010
10110001
00101000
10111000
10011000
10101000
10111000
10011000
10011000
11001011
10101001
10111001
00011000
10111001
00101000
10101000
10011000
10110001
10111000
10101001
00011000
10100000
00011000
00111010
10111010
11001011
10101001
00101001
10101000
10100000
00111010
10101001
10111000
00111001
00000000
11001011
10101000
10101001
10111001
10101000
10110000
00101000
11001011
10111000
10011000
11001010
10111001
10111010
00111010
10111010
00100000
10100000
00111010
10101000
10101001
00101000
10111010
10111001
10111000
11001011
00101001
10100000
10111000
10111000
00100000
00111001
10100000
10011000
00000000
10101000
00101000
00101000
00111000
10111000
10011000
00000000
00111001
10011000
00000000
10101001
11001011
10011000
00100000
10111010
10111010
00000000
00011000
10111001
10111010
10111001
10111001
10101000
00111010
00101000
10101001
10100000
10100000
10100000
11001011
00101000
00101001
00000000
10100000
00111010
00011000
10101001
00011000
10110000
10111001
10110001
10101001
10111001
11001011
00000000
10111001
10101000
10100000
10111000
00011000
10111010
00000000
11001010
11001011
00000000
10101001
00011000
10100000
10111001
10101001
10111010
10111000
10110000
00111000
10101000
10101000
00101000
10100000
10111010
00100000
11001011
10111010
10011000
00011000
10111010
10111010
00011000
11001010
11001010
11001011
00011000
10011000
00100000
10111000
00111010
00101000
00101001
00100000
00101000
00101001
00111001
10111000
00101001
00111010
10111010
10101000
10100000
11001010
10100000
10111001
10111000
00101000
10111010
10111000
10011000
10011000
10110001
10111001
11001010
10111001
11001011
10110000
10101000
10011000
00101000
10110000
10101000
00111010
10101000
10100000
10101000
10011000
10111000
00000000
00011000
10011000
00000000
10011000
00101000
00100000
00101001
00100000
00101000
00101001
10100000
00101001
00101000
10101000
00000000
10111000
00000000
00111010
10110001
10101000
00111000
00101001
00111001
00101000
10101001
00101000
11001011
10011000
10111000
10100000
10100000
00101001
10111010
11001010
10111010
11001010
00011000
10100000
11001010
10011000
10011000
10111010
00100000
00100000
10100000
00011000
10111010
00011000
10110001
10110001
10111001
00101000
00110000
11001000
11000000
11011011
11100011
11001010
11001000
10101001
11001001
10111001
11101100
11011011
10101001
01010011
01001010
01001000
10111010
01011000
01000000
11011010
00100000
10110000
01001000
00110001
01001010
00110001
01000010
01001011
10100000
11001010
00011000
11010010
11011011
00111000
00101001
01001010
01000001
11000010
01000000
00110001
11101000
11001010
11010001
10101000
00100000
01001011
01000010
11001010
10110000
11010010
11010011
11011011
10110001
00111001
01001010
00110000
00100000
00101001
11010011
11001010
11010001
11101100
00101001
10101001
11001010
00111001
10110000
11011001
11101100
11000010
11000000
11001010
11000010
11101100
11000000
11001010
01000001
11000010
10101000
00000000
00011000
11011011
11101100
11011000
11000010
01101100
01011001
01010010
00000000
00111001
00100000
00101000
00111010
00101000
10111010
10111010
10101001
10111010
00111010
10011000
10101001
11001010
11001001
01011011
11001001
01000001
01011011
00110001
10101000
11101100
10011000
11001011
01011011
01001010
10101001
01001010
01000010
00111010
01010010
00111001
01001011
01011011
11100000
10111010
11010001
01000010
00101001
10101001
00100000
10100000
11010010
11011001
11101100
11011100
00111010
00000000
01011011
01000000
01000010
01001001
11101100
11010011
11010001
01000001
10111001
01010011
01000010
01001001
01011001
01010011
01001000
11101100
01001001
10101001
01011000
01000001
11000001
11001000
11010011
11101011
01000010
11010010
11000010
11010010
10011000
11000010
01001010
11101001
11010010
11000001
10101001
00111010
01011011
01000001
00100000
11010000
11011011
11010011
11011011
11001010
11011100
11000010
01001011
11011011
11101011
10101000
00111010
00101001
10100000
00110000
01001001
11101101
11011011
11011011
00100000
01011100
10110000
00111000
00011000
10110000
10100000
01011000
01011001
01101100
01000000
11011001
00111001
10101000
10011000
11001010
11001010
01001010
10111010
00111001
10101001
11001010
11011100
00101000
11001010
10111010
00000000
01001000
01001000
00011000
01011001
01001001
10101001
00101000
11010011
11100011
11101011
11011010
11000001
11011011
11011001
10011000
00100000
01001001
01000000
01010011
01011100
10111000
01000001
01011011
01000010
01000001
00111001
01000010
11101101
10011000
11001010
01000001
00110000
01000010
10111000
10110000
11111011
11100001
11101001
10110001
01011010
01000010
01010001
01000001
01011100
01011011
00110000
00110000
11011011
10111000
00101001
00101001
10111010
11001010
10101001
00111000
00110000
00110000
00101001
10100000
11001011
00100000
10011000
11101011
10111010
11000010
11011011
11001001
00000000
10111010
10111010
10111001
10100000
00101001
10101001
10111001
11001011
00101000
00101000
00111010
10100000
10011000
11001011
00101000
10011000
00011000
10111001
00111010
10011000
10011000
10101000
10111001
10110000
10101001
10100000
10101000
10100000
00000000
10101000
00101001
10101000
10100000
00011000
10111001
10100000
00101000
10100000
00101000
00000000
00011000
11001011
10100000
10111010
10111010
10111000
11001010
00011000
00011000
10110000
10111000
00011000
10101001
00111010
00101001
00100000
10101001
00000000
10111001
00101000
10101001
10111010
10101000
10101000
00101001
10101000
10111001
00111000
00100000
10111000
10111001
10111001
10110001
00101000
00011000
10100000
10111001
10111001
10100000
00101001
11001011
00101001
00101000
00011000
00101001
10111000
00011000
10101000
00111000
10111010
10011000
10101000
00111001
00100000
00111000
00011000
10111000
10100000
10101001
10111001
10111001
00101001
00000000
10101001
00000000
11001010
10101001
11001011
10101001
00011000
10101001
10111001
10111001
10100000
10100000
00011000
00000000
10101001
00000000
10101000
10111001
00011000
11001011
10111010
11001010
10111001
00000000
10111000
10100000
10111001
10111000
00100000
10101001
00101001
00000000
00011000
10110000
10101001
00101001
00011000
00100000
10111000
11001010
10111010
10111000
10101000
10101000
10111000
10101000
10101000
10111001
10011000
00000000
10111001
10110001
10101000
00011000
11001011
00101001
10111000
00111001
10111010
10111000
10011000
10100000
00000000
10101000
00111000
00111000
10110001
10100000
00111010
10111000
00101001
00101001
00011000
10011000
10111000
10011000
00000000
11001010
00111010
10101000
10110000
10111001
00101001
00000000
10111010
10111001
10101000
10101001
10011000
11001010
00011000
10101001
10111001
00110000
10011000
00111001
00101000
10111001
10100000
00111010
00101000
10100000
10011000
10110001
10101000
10011000
10101000
10111010
10011000
11001010
10110000
10100000
10111001
10100000
10110000
11001010
10101001
11001001
10111010
11001010
10110001
10011000
10101000
10100000
10101000
11001011
00101001
10101001
10101001
11001010
10011000
11001011
00111010
10110000
10111000
00111010
10101001
00101001
10111001
10100000
00000000
10110001
10111001
10111000
10101000
10110000
10111010
10101001
11001010
00101001
10011000
00111001
00011000
00101000
00101000
00100000
10011000
00011000
00000000
10111000
11001011
10101001
00000000
10101000
00111001
10100000
00011000
11001010
10011000
10111001
11001011
00011000
11001010
10101000
00101001
11001010
11001010
10101001
10101000
00111010
11001011
10101000
10011000
00101000
10100000
11011011
00101001
10101000
11001000
01001010
11010011
11000000
10111010
00101000
11101100
01000001
11001000
11100010
11001011
11000000
11010011
01010011
00011000
01011100
10101000
10111010
10110001
11010011
11010010
00101000
00111000
11000010
01011010
00100000
10111001
01000000
11010000
00110000
01001001
01011011
10111000
10101000
01000000
11001011
10110000
11010011
11001010
00111010
11101011
11000000
11000000
11010010
11010011
11101101
11001010
11101011
00110001
01011011
00100000
01101100
01010011
01101101
01001011
11001011
01001011
01011011
01101101
01001001
01011011
11000010
10101001
11001010
11010011
11101010
00101001
10111010
01011000
11101011
10111000
00101000
11101011
11101100
11101100
11011001
01010010
00111001
11100011
01011011
11011011
11100010
01010000
11100100
11101011
00011000
10111010
00111010
00111010
00101001
00101001
10101000
10101000
10111010
01000000
01010010
11000010
01011010
00111001
11011100
11001001
11011010
11010000
01010011
01000000
00111001
01001001
01011011
11011011
11101100
11101100
11010000
00101001
01000010
11011010
11001011
11000010
11000001
11101100
11010010
10111000
01011011
01001010
01001010
11011000
00000000
11001001
11111110
11100010
11010001
00101000
01000010
11011011
10110001
11001010
00011000
11101001
10111010
11011001
00110000
00011000
01011011
01101101
00111010
01001001
00111001
01000010
01011011
11010011
11011001
11010010
11010010
11010001
10101000
11010001
11011011
01011010
00011000
01000010
11011010
11010010
10101001
11010010
11011010
11111101
11010010
01001010
10110001
10101000
10111001
10111001
10111001
11101101
11010010
11101101
11001010
01011011
00101000
01010000
01000000
11001000
11011100
11011011
11001010
10101000
11011011
10110001
11011011
00000000
10110000
00011000
11001010
11011011
01100010
10100000
11101011
01000010
11000010
11101100
01011011
11011010
11011100
11011011
11011100
10111001
11001010
00000000
00101000
10101000
00111010
00100000
10011000
11011010
11011011
10111010
00101001
11011001
01000010
11001000
11011100
00101000
10100000
01011011
11001010
10011000
01001001
11100100
11100000
01000001
01001000
00100000
11001011
01010000
00101001
11001010
01011011
01000000
11001001
11101010
00000000
00011000
11001011
11001010
01011100
11000000
11011011
01011011
10111010
10111010
01011011
11101010
11000000
11001000
11011010
11100010
10110000
10111000
00111001
01001001
01000010
00100000
01010010
10111000
00101000
01101100
00101001
10101000
10110000
10011000
01001011
00101000
00000000
10111000
00110000
00011000
10111010
00101001
00011000
10111000
11001001
11011011
11010000
11000010
10100000
00101000
10110001
10011000
11001010
11001010
10111010
00000000
10110001
10110001
10111001
10011000
10111000
10101000
10110000
11001001
10111010
11001010
00100000
00100000
00111010
00101000
10101001
10101001
10011000
10101000
11001011
00011000
00011000
00111010
10111000
10100000
00101001
11001010
11001010
00011000
11001010
00000000
00101001
00101000
10110000
10011000
11001011
10111001
00101000
10110000
10100000
11001010
11000001
10100000
11001011
11001010
10111000
11011100
10100000
00101000
10011000
10100000
10111010
10101000
10111001
00101001
11001010
00011000
00000000
00101000
11001010
11001010
11001010
11001010
11001000
10100000
10101001
10111000
00101001
00101001
10101000
10011000
00000000
10111010
10101001
00111001
10101001
00111000
10111001
11001010
01001011
00101001
10011000
10101001
10111001
10100000
00100000
00111010
10111001
00111001
00011000
10011000
00101000
00011000
10110000
10011000
10111001
10100000
10111000
00000000
10101001
10100000
10111000
10110000
00011000
10101001
00000000
10111010
10110001
00000000
00101001
10111000
10111010
10111001
10111000
10101001
11001011
11001001
10111010
10110000
10100000
00101000
10110001
10110001
10110001
00000000
11000000
11001010
10110000
10111010
00111000
10111000
00101001
11001010
00111010
10011000
10110000
00000000
11011100
00111000
00110000
00100000
11001011
10110001
00101001
11001010
10110000
11001010
00101001
10101000
11000010
00101001
11001011
10011000
10101000
11001010
00101000
00101000
10100000
10100000
11001010
00111010
00000000
10100000
00100000
00101001
11001010
10111001
00011000
10111010
00101000
10111001
00000000
00000000
10101000
10111000
00101000
10101001
10011000
10111010
10110000
00100000
10110001
10011000
11001001
10101001
11001011
11001011
10111000
00100000
11001010
10110001
00111000
00101001
10101001
10110000
10101001
00111010
00100000
00011000
10011000
11001011
10111010
10101000
10111001
11001010
11001010
10101001
10111001
10110000
10101001
11001010
00101001
11011100
11001000
10100000
00111001
11001010
11000001
10101001
10110001
10110001
10111010
11001011
10101000
00000000
00000000
10100000
10111000
10100000
00111010
10011000
11001011
00000000
10100000
00011000
10110000
11001010
00110000
10011000
10111000
10110000
11001010
11001001
10111001
10100000
00000000
00111010
00101001
10101001
11001011
00000000
10100000
10101000
00111000
10111000
10101001
10111000
10100000
10101000
11001010
10110000
11001011
10110000
10101001
10110001
10111000
00000000
10111000
10100000
00011000
11001001
11011100
00100000
00101000
10111010
10011000
10100000
10011000
00101000
00000000
00100000
00100000
00110000
01001010
11001010
00011000
10101001
11101010
11000010
11010000
01001010
00111001
01000010
11010010
11000001
11101101
10100000
11010011
11011011
10101000
11011011
11000010
01011100
00110000
01011100
01100100
01101100
01101001
10101001
11011011
11101001
01001010
00110001
01011100
01011010
01000010
01101100
11011000
11011100
11010010
00101001
10111001
00111000
11011011
11010000
11011011
01000001
01001001
00011000
10011000
00100000
00111000
10110000
01011010
01011010
11000010
10111010
00100000
01011100
10110000
01011011
11010001
11001011
01011011
10101000
00110001
10110001
10101000
01000001
11011011
01001011
10111010
10110001
11001010
01001011
01010011
11001010
11000010
11001010
10011000
11011011
11000001
10110000
01011011
01101010
11011011
11011011
11011011
10011000
11101100
11100010
10101000
00011000
00011000
00111000
10101001
00111010
10011000
00111001
00011000
01010010
01011011
01011011
10100000
00111001
01001010
01001010
00110000
00101000
10111000
11011011
10111010
11001011
10101000
00000000
01011001
10111010
10100000
00110001
00011000
00111000
01001000
01001010
10111010
10101000
01011000
01011011
10100000
11011011
11010010
01011011
00111010
11001011
01011011
01011010
01010001
00000000
11000000
11011011
11001001
11001010
11011011
01000001
00100000
00111000
10110000
11001010
01001010
00101000
00011000
11011000
01011000
00100000
01010011
10100000
11011011
00011000
00110000
11000010
00110001
11111101
11010011
11001011
11001010
10111001
01011010
11000010
11011011
11000000
11000010
11101011
11011010
11001011
11001000
11011010
10110000
10101000
10111001
01000001
00000000
11001010
01010011
10101001
11010010
01001010
01010011
01001001
10111010
01000001
01000000
00110000
10111001
00110000
10110000
11001010
01000010
00111010
10110001
11000001
11010011
10100000
01000010
10100000
11101100
11101011
01000010
00111010
00110001
10011000
10111010
10011000
00101001
00101001
00110001
01001011
00011000
01011100
10101000
01011011
01010011
00110000
11000001
01001011
10110001
11100010
11101100
10110000
11001010
11101100
00111001
01000000
01001011
01010001
01010011
01101100
00100000
10101000
00011000
00110000
00101001
11101100
11101100
11100100
11010010
01000001
10111001
11001010
01001000
01001011
01011100
10110000
01001010
01011011
10011000
00000000
10110001
01001000
00100000
00011000
10110001
00110001
00111010
10100000
11011011
11001001
01001010
00000000
00101001
01010010
01010011
01010011
00100000
00111001
00110000
11001010
11000000
10101001
00000000
10110000
10111001
10101001
10100000
11011001
11000010
11000010
10110001
00000000
00110001
11001011
01001011
01000010
00000000
10111001
10111001
11101100
01011011
00111001
11011011
00110000
11000010
10111000
11000010
11011011
00110001
11011100
11000010
01011011
11001001
01001010
01000010
01011100
01001011
01011011
00111010
01001001
01101011
11001001
10111010
10101001
01001000
00100000
01101100
00011000
01001010
01101100
11011011
00111001
01001010
01001011
01000001
01010010
00101001
11001011
01011011
00101001
00111000
10110001
01000010
01001011
11101100
01000000
00111000
10100000
11001010
01010011
00101000
01000000
01101011
01101101
01001001
00101001
01001000
10101000
01000001
10110001
11011011
10111001
00101001
11001011
01000001
10110000
01000000
11001010
00100000
11101101
10110000
10110000
11001001
10101000
00011000
11100011
11011011
11101101
11111101
11111101
11100100
11100000
11111100
11100011
00111000
10100000
10101001
00000000
00101000
00111010
10111000
00111001
10100000
01001001
01000010
01010001
00101000
01001001
01101100
00111010
01010011
01101011
10111010
00111010
00110001
10100000
00110000
01011010
11000010
10111001
01010011
01011010
11011011
11011010
00000000
01001010
11000010
11010011
11011001
11101100
00110001
00111000
01011100
00111001
01011100
01001010
00011000
01000001
01000010
01011011
11000000
10101001
11001010
01001010
01011011
10101001
01001000
01010011
01101100
00111001
00111001
01001010
00111010
01000001
10111010
00100000
00110000
11011000
01000001
10110000
01001010
01101101
11010011
01000001
00101001
11011011
10101000
11101100
11010001
11111101
11101010
11011000
11010000
11010011
11101100
00101001
10011000
00110000
01001010
01001010
01011010
10101000
00110000
01010010
01011011
00110001
00101000
01011100
01101101
01010011
00011000
01011011
01010011
01011010
01010011
01010011
10111010
11101100
11001000
10101001
01001011
11011011
11111101
11100010
11010010
11101010
11100011
11101010
11010010
11111101
11101100
10101001
10111000
00000000
10110000
11010000
00000000
11001010
11000000
11000010
10111001
11000010
00111000
11011010
11101011
11101011
11011011
11011011
11100100
11001010
01011010
01001010
01000000
01011010
01011010
00110000
01000001
01010011
01011000
00000000
11011011
11011011
10101000
00101000
11001010
10111010
11010010
01000010
00110000
11001011
10101000
11001010
11010011
00101000
11000010
11101100
00111001
01001001
01000000
01011000
01011011
10111010
01000001
01011010
01000001
01010011
00111000
00101001
00110000
11001001
10101000
11000010
11011011
10110001
11011100
11011011
11001010
10110000
11101100
11000001
10110001
11010011
11111110
10111000
10111010
00111010
01011100
01001010
01001011
00100000
00110001
01000010
11101011
11100100
11111101
01001000
11001010
11101100
00111000
01000010
11011011
01000010
11000010
11010001
01011001
01101011
01011010
10111010
01000010
00111000
10111010
10111000
11010000
10011000
01001010
10110001
01001001
11001010
11011011
11011011
11001010
11010011
11010001
11010011
11101011
10111010
11010010
11111101
11000000
11011011
11010011
01000000
01011011
11101101
00000000
00111001
11101100
11000010
00110001
11011100
11010011
00110000
00011000
11000010
11001000
11001011
11010010
00000000
11000001
11001010
01001000
01001010
00011000
11010010
11010011
10101001
01001011
11010010
11001010
01001010
10100000
11000010
00111000
00100000
01000010
01000000
00000000
01000010
01011011
10101000
10111000
01011000
01011010
00101000
00101001
10100000
01011011
01011011
00110000
10110000
00111010
01010011
10101000
00100000
10101001
00111010
00000000
00111010
00111000
10101000
10111010
01011011
11011011
11000001
01011010
01000000
11101010
10101000
01000000
00111001
10011000
10011000
11011011
01000000
01011010
11001010
00101000
01011011
11001010
01001010
10101000
11001011
11001010
10110001
00110000
00111000
10101001
01010010
11000010
11010011
11010011
00101000
11000010
11011010
01010011
00011000
11010011
01011000
01000000
10011000
01000010
01001010
01011100
01001001
01011011
01010011
11101100
11011010
11100010
01001010
01001010
11011010
01000010
10111010
11100100
00111010
01000000
10111010
11101011
01011011
00111001
11010011
00101001
01001001
01011010
00000000
10101001
01001000
00011000
01001010
11001011
00101001
01011001
01010011
00111000
10110000
01011010
01001010
11011010
01001010
01001010
11010011
10111000
11100010
11010010
01011010
11011011
11011011
01010011
11001010
11011010
11010010
10111000
10111001
11001010
00101001
10110000
11000010
10110001
00000000
01011010
01000001
11000010
01010010
01010010
00101001
01000001
01011011
01011010
10111001
00101001
10110001
11010010
11001011
10111010
10111000
11001010
10111010
10101000
10101001
10111000
01000000
00101000
00110000
11010010
10111010
01011011
11101100
11100011
11100100
11101100
11101011
11111000
01011011
11011000
11111000
11101101
11010000
11010011
01011001
00110000
11011011
00011000
10011000
11100001
11011100
00111000
10110001
11010011
11000010
11000001
11001001
00111010
00011000
11010011
11111000
11100011
11100001
11111011
11111110
11001010
11101100
11111100
10100000
01001010
11011011
11001010
00101000
11010011
00111001
01000010
11000001
11001010
10111001
00101001
11001010
10110000
00011000
11011010
11000001
10101000
01010010
10111001
11010011
01011001
00111010
11101100
00110001
00101000
11010010
10101000
01001001
00111001
01001001
01001010
11001001
01011011
00111010
11101101
11001010
00101000
00000000
01001011
01001000
11011010
01011011
10101000
10101000
11000001
10111000
10110001
10111010
00000000
10110001
00110000
00101001
11101101
10100000
10111000
00100000
00101000
10111010
11001010
00110000
10111010
10111000
11001001
00110001
10100000
10110000
00110001
11011010
11001010
00110000
00101001
01001011
01011100
01101011
01001010
01001010
01011011
01000000
01001001
10100000
00110000
11001000
00111001
11001010
10110000
10100000
11000010
10111000
00110000
11010010
00111001
01000010
11001001
00101001
01001010
01001001
11001011
00111010
11010011
11011011
11011000
11101101
10011000
00000000
11000010
11000010
01001000
01101011
00100000
11000010
11001010
10100000
10111010
11010010
11001001
00011000
10101001
10111001
10101001
10011000
00111000
10111001
00101000
00101000
10111010
11101100
11001011
01001010
00101000
01001010
00111000
01000010
11000001
10101000
11000010
10100000
10100000
00011000
00011000
11001001
01001010
10100000
11101100
11101100
11101010
01000001
11010011
11010011
00101000
11010011
11001010
01000000
11010011
00111010
01000000
11001011
01000001
01001011
01000010
01011010
10101001
11101011
10111001
01001000
11101011
10110000
01011011
11011001
00011000
01011011
11100010
11111101
11011100
11101011
11100011
11011000
11000000
11001000
11011010
01011011
01001001
01011001
00111001
11011010
11000010
00110001
00101000
01011001
11000010
11101100
11001010
11101100
11011011
11001000
11101011
11101011
01000000
11101100
10111001
01011011
11101100
01001010
01001011
10111010
01001011
01001010
11010011
10101001
10110001
11001010
00011000
00011000
01011011
00110000
11000010
00011000
10110001
11101100
00101000
11011011
11100100
01001010
11001001
11101100
01010010
10101001
11101100
10100000
11010010
11011011
11101100
11101011
01010011
00101001
10011000
00111000
01001010
10100000
11001001
00111000
10100000
11101101
01001010
10111000
11011011
00101000
11011100
11001000
11001010
11101100
11011010
00011000
01001001
01011000
01001001
01011100
01001010
01011011
01011010
11011011
11101000
11100100
11111100
11010011
11100001
11010011
11010010
11010011
11001011
11101010
11000001
00111000
11001010
11010011
10101001
11011011
11001011
10111010
10100000
01011011
01010011
00100000
01001001
01011011
01101101
01011011
11001000
11100011
10110000
01011100
10100000
11100001
11011011
11011011
11011011
00011000
00111001
00101000
11001010
00101001
00110001
11001011
10110000
10101001
11001001
11010010
01011100
01000010
11001010
00110001
00100000
01001010
01001000
01001010
01001011
01000001
01000001
00011000
00000000
01000000
01001011
01001010
01010011
01010011
01010011
11101100
01001000
00000000
11010010
00111010
00111010
11011010
01011011
01000010
11001011
00110000
00000000
11011011
10101001
00111010
10111010
01000010
00110001
11001010
01001010
11011011
11011011
01001010
01001010
01001000
00000000
00101000
10101001
11011100
00011000
10011000
11011011
11011011
11001011
01001011
10111010
11000010
10111010
11010001
00101000
00110001
00111000
01101010
00101001
01010010
11011000
11001000
00000000
10011000
00011000
01000001
11011011
11000010
01011010
01011010
11010011
01001010
00011000
11010011
00110001
01011011
01001010
01001011
11011011
10100000
10111010
11010011
11011000
11101100
11011010
01010001
01001010
10110000
10110001
01011000
11000000
11101101
11011011
10111010
10111010
00111000
10101001
00011000
10111010
10101000
00000000
10101000
00111000
01011010
01011011
11001010
10110000
10110001
11011011
00100000
00110001
01000010
01011011
01011011
11001010
00111010
00101001
11000000
11001010
00111000
10110001
11001010
11010010
11010011
11111101
11111100
11011011
11111101
01010010
01000010
11001010
00110001
10101001
11011011
00111010
11001010
11011001
01010001
01000010
00000000
11000010
11010000
11101100
11011011
11001010
11101011
01001001
01001001
01001010
01001000
00111000
01011011
01011011
11011011
01000001
10111000
11011011
01001010
10111001
11000010
00101000
11101011
11000000
10111010
11011011
01011000
00011000
11000000
11001010
11010010
11010010
11010010
11111101
11010011
00011000
10110000
00100000
01011010
11000010
00101000
01011000
11101100
10111000
10110001
11010011
11010010
00110001
11011011
10011000
01010011
11001011
01011011
10100000
01001010
01011010
01011011
00111001
01001010
10111000
01010000
11001001
11101010
01011011
01001000
11000010
01000001
01011010
11100010
11001011
11011100
11101100
10110001
11000010
11011011
11000000
11010011
11011010
00101001
11000001
00101001
10110000
00111001
11011011
10101000
11001011
11000001
10110000
11010011
11101011
11011011
00111000
01011001
11011011
10110001
01011011
00101001
01011011
01101010
01010000
01011010
10110001
01010010
01000010
10111001
10101001
11011011
11101100
00000000
00111010
01011100
11101100
11101011
11010010
11101100
00100000
01000010
11011011
01010011
01010010
11010011
11011011
01011011
10110001
01001010
01101011
11011100
11001010
10111010
11011011
11011011
11011011
10101000
00100000
00101001
11001010
11011011
11011011
11001001
11011011
11010010
10011000
10101000
11010011
11011011
00100000
01010010
11001011
01001010
01010000
11101100
00011000
01001001
10110000
10101000
00101001
10111010
00100000
10111001
10111000
00000000
10011000
10011000
00101000
00100000
00101001
10101001
10100000
00101000
10111000
11001011
10111000
10011000
10101000
11001010
10110000
10111000
00101000
10101001
10101000
00111010
10100000
10101000
00101001
10011000
10100000
10111010
10111000
00011000
10111000
00011000
10100000
10101000
00111001
10011000
10111001
11001011
10101001
11001011
10101000
00101000
10111000
10011000
10100000
10100000
11001011
10100000
00111001
10111010
10111010
00101001
10100000
10011000
10100000
10101000
00011000
10101000
00111001
00011000
11001011
00101000
00100000
00000000
10110000
00011000
10100000
10101000
10101000
10101000
00111001
11001011
11001011
11001010
10111001
10111000
10101001
00111001
00101001
00101001
00011000
10101000
10011000
10111001
00011000
10101000
10111010
10100000
10111010
10111000
10011000
00101000
00000000
10111010
11001011
00011000
00011000
00111001
10011000
00011000
10011000
00101001
10111000
10100000
00011000
00011000
10101000
10111010
10110001
00000000
10111000
10011000
10011000
10111001
10111010
00101001
11001011
10111000
10101000
00101000
10111001
00000000
10101001
10101001
10101000
00011000
10100000
00011000
10101000
10111010
00111010
00100000
10111010
00111000
00000000
10110000
10100000
00000000
10100000
00101000
00111001
10101000
00111010
00101000
00101001
10110000
10101001
10011000
10111010
00000000
00000000
10111001
00111010
10111001
00000000
00101001
10101001
10011000
10011000
10101001
10111010
00111001
11001011
10011000
00101000
10111010
00011000
10011000
10111001
10100000
10111000
10111010
11001011
10111010
00011000
00111001
11001011
10111000
10111010
11001011
00101000
10100000
00111010
10110000
11001011
00101001
11001011
00101000
10101000
00111001
10101001
11001010
10111001
00101000
00111010
00111010
10100000
10011000
10111000
10111010
10101000
10011000
10111001
10110001
10101001
10101001
00101000
10110000
10101000
00011000
10011000
10101000
00101001
10111000
00101001
10110000
00011000
00011000
00000000
00100000
10111000
11001011
10111000
10101001
00011000
10011000
10011000
10100000
00111001
00000000
00011000
10011000
10110000
10101000
10111000
00101001
00111010
10110000
10101000
10111001
00011000
10111001
10101001
10111000
10100000
10111010
10111000
00100000
00111000
00100000
10111000
00101000
10101001
00111010
10101000
00111010
00101000
10100000
10101000
10111001
10101000
10111001
10100000
00111010
00101000
10011000
00101001
10111000
10100000
10110000
10110000
10110000
00011000
10111000
00011000
00011000
00111001
00011000
10111001
10111000
10101001
00101001
00101000
11011001
11101100
01011010
01011010
01010011
00101001
01000010
01011010
01000000
01000010
01001010
01001010
01001010
01011010
11011011
01011100
01000001
00111001
01001010
00111010
11101011
11011010
10101000
11100100
11101011
11010011
10100000
11000001
11011011
00110001
11010010
11011001
11011011
00111000
01011010
01001010
10111000
00011000
10100000
00110001
01001000
11111000
11101011
01011011
11010011
11000000
10111010
00101001
11011100
11001000
00101000
01001010
11000010
11001011
00111000
01011100
10110000
11011011
10110001
11100011
11011010
00111000
10101000
11000010
11001000
10111001
10100000
01000000
11000010
11011010
11101101
00111001
01001000
01001010
00111000
01001011
01011000
11010010
11011011
10100000
01010010
01000010
01011011
00101001
01101011
01101010
10111001
10100000
01010011
10100000
10100000
10100000
10101001
10011000
10101001
00101001
00101001
10111001
01011001
01010011
00111000
01011001
01011000
01010001
11000010
01000001
11011011
01000010
01011011
00000000
11101101
00111010
01000010
11100100
11000010
01011011
10111001
10011000
01000010
11010001
11010011
11011011
11010011
11101011
11101100
00100000
11001010
11001011
11100001
11010011
11011011
11111101
11101011
11101011
00100000
01011100
00110000
11011010
11000001
00111000
11101100
11010010
11101100
01011001
11000010
11101100
01011011
01000010
00011000
11011100
00011000
01101100
11101100
10110000
00110000
01001010
11001010
11101101
11011100
00011000
11101100
00111001
01001000
01001010
11000010
01001010
01000010
00111000
10110000
01001010
01010010
01001011
00111000
00101000
11001000
00111000
11101100
11011011
11011011
01101100
00111001
10011000
10011000
11000000
11000001
10111010
11001011
11001010
11011011
11111110
11100100
01000000
01000010
01010001
01001000
01011011
01010000
01011011
01011011
01001010
11011011
01100010
01100100
11100010
11100100
10111010
11101100
11010000
10111010
10100000
11010010
11101011
00101001
10111010
11011010
00011000
01010011
00100000
01000010
01011011
01010011
01010001
01000010
01011001
10111001
10110000
11001010
11010001
11000010
11001010
11101010
11010011
11111101
01101010
01011011
11010011
01010001
01010011
01010010
11011100
01001000
01101100
11010010
11010010
11000000
00110001
11010010
11011001
10110000
11001010
11000001
11010011
11000010
10100000
11101100
11011011
11000010
11101100
11010011
11101100
11011011
11101010
11011011
00111010
11001000
11101011
11011010
11001011
10110000
11011011
11001010
00011000
11001011
10111010
11010011
01001010
00101001
11101101
01000010
00011000
11011011
01001010
00101000
00111001
11000010
11001001
10100000
01000000
01001011
00110000
10110000
00110000
10101000
10110001
01010010
01101100
00111001
01011100
10101000
10111001
10101000
01000000
11101100
01001010
01001010
10111000
11001000
11011011
01000010
11011011
11011011
11000010
11100100
11100011
10110001
11011001
11101011
01000001
01010011
11011000
11001010
11001011
11100011
10011000
11001000
11001000
10100000
01001011
11011011
11000010
11001000
11100011
11000000
11000010
01000001
11011010
10111010
11010001
11010010
01101101
01000010
01000000
11001000
11010001
01011011
01001001
00100000
01011010
11011011
11000010
11011100
01001010
01011011
00110000
11011010
11001010
10101001
00111000
00100000
00111010
01011010
01011010
11011011
10110000
00110000
11101100
11001011
01011100
01011010
01001001
10100000
01010011
00101001
01000000
10011000
01101100
01101011
10101000
10100000
10101001
00111010
00101001
10111000
00111010
10111000
00100000
01000001
00111001
10111000
10110001
00011000
11011011
10110001
00110001
10111000
11011011
11011011
11011010
00111001
11001010
11011011
11010001
11101010
11101011
11010011
01000000
01011011
11100011
10110000
01011011
10101001
00111010
01101011
00101001
10110000
00111010
10111001
11001010
01001010
00101001
11000010
00111001
11011010
11000000
00100000
11010010
11001011
00111000
11011001
11001010
01001001
01000000
11011011
11101100
01000001
11011010
11010000
00111001
11010011
11100011
11011011
11000000
01010001
10101000
10111010
11011011
01001000
01001001
10111010
11001010
01010011
01000010
11010011
00101001
01001001
11101010
01101100
01010011
01001010
00100000
01001011
00111010
00100000
10011000
11001000
11011011
11011011
10100000
11011011
01001010
01000010
11101101
01000001
01010010
10101001
01011011
01011100
10100000
11001010
01011010
10111001
11011011
11001010
10111001
11101100
01000010
00000000
11000010
01101100
11010011
00000000
01010011
11011011
01011011
11001001
11010001
11001001
01001010
11101011
11011011
00111000
11101010
11010000
01010000
01000010
10110001
01001011
10110000
10101001
01000010
00110001
01011000
10011000
00111010
01001011
00110000
10111010
11011011
11001001
01011100
01001010
01010011
00110001
11010011
01101100
10111010
00000000
01000010
11001010
11011011
11011000
01010010
00011000
11010010
00111001
00111000
11010011
01011000
01000010
01011000
00011000
01001010
00111010
01001000
00011000
10111000
01001001
01010011
11011010
11000000
11011010
10111000
11010001
10111000
11001001
11101100
11010000
10100000
11011011
11001010
01001000
11011001
10111010
01000010
11101001
11011010
00101000
01001000
01001011
00100000
01001010
00111001
11000000
10100000
01001010
11101100
11101100
11101011
11010000
11101101
10111010
11101101
10100000
00111000
10111010
01001010
01011010
10110000
11001000
01001010
10101000
00110000
10111010
01000010
01011010
01011010
01010000
01000010
01011011
01011011
10011000
01011011
00111000
01011011
01010011
01011010
01000001
01101100
11000000
11000010
10110001
10101000
01001001
01101100
01010000
01000001
01011011
00110000
01001011
00011000
10110001
00101001
10100000
10110000
11001010
11011010
10100000
10101000
11011011
10111010
01001011
01101100
01011001
01101100
01000000
01000010
10101000
01011010
11010011
11010010
10100000
01001011
10110001
00110000
01001010
01000010
11001010
11000010
10100000
11001010
00101000
00110000
11001011
01001010
00110001
11001010
11011011
11011001
11000010
11000001
11101100
10111001
11011011
11101100
10110001
10101001
00101000
00100000
00101001
00101000
10111001
00101001
10111010
00011000
11001010
00000000
11001000
10100000
10111001
01001010
00110001
01001010
01001010
01001010
01000010
01011011
01001001
10011000
01000010
00110001
11000000
00000000
11100100
11101100
10110001
11010011
00100000
11011011
01101011
01001000
11001010
10111010
11001001
10111001
00101001
01001010
01001010
01011000
01001001
00000000
11101011
11011010
11101100
10100000
00100000
11011011
01100100
01010010
11001000
11101100
11101100
01011011
00000000
10111001
01011100
11100010
10110000
01010010
10111001
11001001
00000000
11011011
11011011
11010011
11000010
11011010
11010011
11010010
11010010
11000000
11001010
11011011
00111000
01101011
01011000
10111001
10101000
11001001
11011011
00110001
00000000
11001001
01011011
10011000
11011100
11011010
11001010
11001001
10011000
00110001
01011011
00101001
01000010
11000000
00011000
01000000
00101001
11010001
11101011
00101000
11100100
11100100
11001010
00111001
01011100
01010001
01001000
10111001
01011010
11010000
11010010
00000000
00110000
01000001
00101000
10111000
11011011
00100000
11010010
11001001
10110001
01001010
11011011
11010000
11100100
11111100
11011010
11111101
11111101
00111010
10100000
00111010
01001011
01001010
00111001
01001011
00111001
00000000
11001010
11100011
11101010
10101000
11011011
10111010
01000010
11100100
00101001
00110001
11101011
11101001
11011011
11010010
11000010
10110000
01000010
01011011
00111000
11001001
11011011
11001010
11001001
11001011
00101001
00111010
10011000
01001010
11101001
11011011
10100000
01001010
11001011
00011000
11000010
01011100
01001001
00101000
00101001
00100000
10110001
10101001
00101001
11101100
11101011
11001010
11011100
11010001
11010011
10111000
10110000
10011000
00101001
10011000
10101001
10111000
10111001
10110000
00101000
10111010
10101000
00000000
00111001
10111001
10101000
00101000
00101000
11001011
10111001
00100000
00011000
00111010
10101000
00101001
11001011
10110001
10111010
00111010
00111010
10111000
10100000
11001010
10101001
00101001
10101001
10110000
10011000
00101001
10111000
10100000
10100000
10111001
00000000
00111010
10100000
00111010
10111000
10110000
10110001
00100000
00101000
00101001
00101001
00000000
11001011
10100000
10111010
10101000
00101000
10110000
10101000
00000000
00100000
00111010
10101001
00101001
00101000
10111001
10111000
10101001
00111010
10100000
00000000
00000000
00101000
00011000
00100000
10111000
10111001
10101000
00000000
10011000
10111001
11001010
00101000
11001011
00000000
00100000
00000000
00111010
00100000
10110001
10111010
00000000
10110000
00011000
10111010
10011000
10101001
10100000
00000000
10100000
00101000
10101001
10101000
11001010
00101001
10011000
00100000
00000000
10011000
00111001
00101000
10101000
10111000
10101001
10111000
00101001
00011000
10011000
10011000
10101000
00101001
00011000
10011000
10101000
00011000
00101000
10101000
10111010
10011000
10111010
10111000
00101000
00101000
10111000
00100000
00011000
10111010
10111010
00000000
10110001
10011000
10100000
00101000
00101000
10110000
00100000
00101001
10101000
00101001
11001010
10110000
10111000
10111001
10111010
10101000
10101000
10111001
10111000
00101001
11001011
00000000
00011000
00011000
10110000
00000000
10111001
10101000
00111000
00101001
00000000
11001011
10100000
00101000
11001011
10111000
10101001
10011000
10101000
00011000
10011000
00101000
10111000
00000000
10110000
10100000
00101001
00000000
10101000
00011000
10100000
00100000
11001011
10011000
10101000
10110001
10111001
10111010
00011000
10111010
00101001
10101001
10101000
00111010
00101001
01001010
00101000
00011000
10111000
00100000
10101001
10111001
10110001
10101001
11001011
10100000
10111000
00111010
10011000
11001010
10011000
10100000
10101000
10101000
00011000
10111001
10111000
10110000
10110001
10110000
10101001
00011000
10111000
10111010
10111010
10111001
00111010
10100000
10111000
00101000
10111010
00000000
10111000
00101000
00111001
10111001
10011000
10101000
10100000
10100000
11001010
10111001
11001011
00101001
10110000
10111000
00101000
10101001
10111000
10111000
10101001
10101000
00111000
10101000
10101000
00011000
00101000
10100000
10101001
10111001
10100000
10100000
00011000
00101000
10111001
11001011
11001011
10111001
10110000
11001010
10111001
00111010
11001010
10011000
00000000
10110001
11001011
00101000
10011000
10110001
00111010
10100000
00000000
00111010
10111010
10101001
10011000
10111010
00011000
10101001
10111010
10101001
00111001
00011000
11001011
10111010
00000000
10111010
10011000
10101001
00111010
10111000
00000000
10101000
10101001
11001010
10101000
00101001
11001010
00100000
10011000
10101000
00000000
00101000
00101001
10011000
10111010
10111010
10101000
10011000
10101001
00111000
00111001
10011000
00101001
10100000
10101001
00011000
10111010
10101001
10111000
11001011
10110000
10101001
10101001
10101000
00101001
10111000
00100000
10111010
00101000
00111010
00101000
10111010
10011000
10101000
10111001
10111010
10101001
00100000
10101001
10100000
10011000
00101001
00011000
00100000
10101000
00101000
11001011
10111001
00101001
10111010
10101000
10101001
00111010
00011000
10111010
10101001
10110000
00011000
10111001
00011000
10101001
10111000
00101001
10111001
00111000
00000000
10111010
00111000
00011000
10111000
10111000
10111001
00100000
10111010
10100000
00011000
11001010
10111010
11001010
10111001
10101001
10101001
10011000
11001011
10101000
10111000
00011000
00101000
00101000
10111010
00101001
00011000
10111001
10101001
10111001
00000000
00100000
10101000
10111000
10111001
10111001
00101000
10111000
00000000
10111001
00101000
00111001
10011000
10111010
00101001
01001011
00000000
10111001
10111001
10101000
10101001
10011000
00111010
10100000
10101000
10101000
10101001
00000000
11001011
10101001
10101001
10111001
10011000
10101000
10110000
00101001
10111000
00111010
00100000
00100000
10101000
10100000
10111001
10101001
10111001
10111010
10101001
10100000
00000000
10110001
10111010
11001011
10111010
10101001
00000000
10100000
10111000
11001011
00101001
10100000
00101000
10111000
10101001
00111001
10110000
10111000
10111010
10101000
00000000
10110001
10100000
10101001
10100000
10011000
10101001
10011000
00111010
10111000
10011000
00011000
10101000
10101001
10110000
10101001
00000000
00011000
10100000
00101001
00101001
10111001
00111010
11001010
10110001
00000000
10110000
10111010
00000000
00101000
10111010
10011000
00101001
10111001
00000000
10100000
10101001
00101000
10110001
10110001
00101000
10110001
00111010
00000000
10111010
10111010
10100000
10111010
00101000
00101000
10111000
10100000
10111001
10111000
10101001
10110000
10111010
00101001
11001011
10111001
00101000
00111001
00111010
00111001
00101001
10100000
10101001
00000000
00111001
10111010
00111001
10100000
10111000
11001011
00000000
00111010
00111001
10101000
10011000
10101000
10110001
10111001
00000000
10110000
10111001
10111001
10101001
00100000
00101000
10110001
00111010
00101001
10111010
10100000
10111000
10101001
00111010
10100000
10011000
00101000
10011000
10101001
00111001
00011000
00011000
10111010
10110000
00000000
10011000
10100000
10101001
11001000
10111000
10101000
11001010
11001010
10011000
10111010
10101000
10111010
10011000
10101000
10111000
10111000
10110001
10101000
11001010
10101000
11001010
10101001
11001010
10101001
10111001
11001011
10101000
00101000
10111001
10111001
11001001
10111000
00100000
10111001
10110000
10110001
10111001
11000010
00000000
10110000
10111000
00000000
00011000
10111010
11001010
00101000
00011000
11001010
10111000
10101001
10111001
00100000
00000000
11001011
00000000
00011000
10110000
00000000
10011000
10011000
10100000
00110000
00101000
10101000
00101000
11001010
10110001
10111001
00011000
10101001
10011000
10100000
10111000
00100000
10110000
11001010
10111010
00111010
10111000
10011000
10101001
00011000
10100000
10011000
10101001
00111001
11001010
11001001
10101001
10111001
10111010
11001010
10101000
10110001
00111001
00100000
10111001
11001011
10011000
10101001
10111000
00000000
10101000
10111000
10011000
00111001
00100000
10110000
00011000
00111001
10011000
11001011
00011000
00101001
00101001
10111000
10110001
00111010
11001010
11001010
10111000
11001001
10111001
00111000
10101001
11001011
00101001
00100000
10011000
10101001
10101000
10101001
00100000
00011000
10101000
11001011
10100000
10011000
00111010
11001010
10110000
10101000
00101001
00011000
10111001
10101001
11001010
00000000
11001011
10110000
10111010
00111000
10110001
00100000
00111010
11001010
10101000
10111010
00101001
10011000
00111010
11001011
10011000
10011000
10111010
10110000
00101001
00000000
00111001
10100000
00101000
00101001
10111010
10110000
00011000
11001010
10111010
10111010
10110000
10101001
00101000
11001010
10111001
00111010
10100000
10100000
10100000
10100000
10111001
00101001
00011000
10101001
10111000
10111010
10110000
10111000
10101001
10111010
10111001
10110001
10101001
10100000
10101001
00000000
11001010
00011000
10110000
10101001
11001011
10100000
10011000
00011000
00011000
10111001
10100000
10111001
10110000
10011000
11001010
10100000
11001010
10111000
00000000
10011000
00111000
10111010
10111001
10101000
10101000
10111010
10110000
10111010
10111010
10111001
11001001
00000000
11001010
10110001
10101000
10011000
10101000
10100000
11001011
10101000
11001010
00011000
11001010
11001000
00000000
10111001
00100000
00011000
10111001
10111000
10111001
00111010
10111001
10011000
10110001
00000000
11001010
00011000
11001011
00000000
10101001
10111000
10111010
10100000
00101000
00101000
10011000
10101001
10101000
10111001
10011000
01010010
01011010
11010011
00000000
11000001
11010010
00111001
11011010
00110000
00110000
11010010
11011011
11001010
01001010
01000000
11001010
10100000
01001000
01010001
01000001
11000001
10011000
01001001
00101000
01101100
01011010
01010000
10111000
10100000
11011011
10110000
01011010
10111000
01001010
01000010
01011011
01000010
11011100
11000010
01010010
00000000
11000000
11001011
11011010
10101000
11011010
01001001
11010011
11011001
11101011
11101010
11101011
11011010
11010011
00110000
11001010
11010011
01000010
01011100
11001010
11000010
10111000
11011011
01001000
00101000
01001010
00000000
11010001
11001001
01011011
11001011
10100000
11001000
01001010
10011000
11000001
10101000
10101001
10011000
00111001
01001000
10111010
11101101
11010011
10111001
00011000
01101101
01100011
00101001
00011000
00111010
10100000
00111000
00101000
10111010
00111000
00111001
00100000
10101000
01011100
01001001
10111001
11011011
10101000
10101000
11011010
01011011
00110001
01011001
11000010
11010000
01001011
10011000
00111010
01101100
00110000
00100000
01000010
01001000
00100000
00011000
00111000
11001011
11001010
10110001
11000001
10011000
01001000
10111000
11011011
11000010
11010001
10111010
10100000
10101001
00000000
01011100
11000010
10111000
00101001
11011011
10111001
11000010
11011010
01011010
01011011
01011010
01011010
01011100
10100000
11011001
01001010
10111010
11000010
11010011
11010011
01001010
11101011
11101100
11011000
11101010
11100010
01000000
10111000
10111000
00111001
11001010
00011000
01101011
11011011
11000010
01011011
01000010
10101000
01011010
01001010
11010011
10101000
10111000
10101001
01000000
00100000
11000000
10011000
10101001
10100000
10111000
11001000
11011011
11011011
11010011
10111001
11010011
10111010
10111010
11000010
11011100
10110001
00000000
11000000
00111001
01001010
01000010
01001010
01101100
01001011
01011011
11001010
11011010
11001001
10110000
11001010
11001010
11011010
11000010
11000001
11011010
11101010
11000000
11011010
11001010
00111000
00111010
11010000
11011011
00110001
10011000
11010010
11011011
11001010
11011010
01001010
01000010
00011000
10100000
10110001
01000001
01010000
01011011
01000000
11000000
00100000
01001010
01011010
01000010
01011001
01001000
11001000
10111010
01001010
11011011
11000000
00111001
01010001
01000001
11001001
11101100
11101010
11011011
11001011
10101001
01010011
00111000
01010010
01101100
00101001
11001000
11010010
01011100
11011010
11011010
11101100
11001010
11011011
11011011
10110001
11010010
11011011
11011011
01000010
01001011
11001010
00111001
10101000
10101000
01001011
00111010
01001001
00011000
10101001
11001011
00011000
00000000
10100000
00101001
11001011
10100000
10011000
10111000
10101000
00101001
10111000
10101000
10111001
10011000
10101001
10111010
10111001
10101000
10111010
10101001
10101001
10111010
00101001
00101000
00101000
10100000
10110000
00111001
10111010
00111010
10100000
00101001
10111010
00111001
10111001
10101001
10111001
10111010
00111010
00101000
11001011
10101001
10111001
10111001
10111001
00011000
11001010
10011000
11001011
11001011
10101000
10011000
10110000
10110001
10101001
11001010
00100000
00011000
11001010
11001011
11001010
10011000
10110001
10100000
10101000
00101001
10111000
00011000
00000000
10111000
00011000
11001011
10101001
10101001
10110000
11001011
00101001
10011000
10011000
10111000
10111001
10100000
10100000
00101001
00111000
10011000
00100000
00111001
10111010
00000000
10111001
00111001
10101000
00111000
00111001
10101001
11001011
10101001
11001010
10100000
10011000
10110000
10011000
10011000
10111010
11001011
00101001
10111001
00000000
00101000
10111000
10111000
10011000
10101001
11001011
00101001
00101001
10101001
10111001
10111000
10111001
10111001
10111001
00100000
10101000
10111001
11001011
10110001
10111001
10011000
00101001
10011000
10111000
10111000
10101000
00101001
10101001
00011000
10101001
00101001
10011000
00011000
10111000
10111001
00101001
10101000
10101000
11001011
11001011
00101000
10111001
00011000
10111000
00000000
10101001
10101001
00101000
10111001
00101001
00101001
00011000
10110001
00011000
00000000
10111001
00101000
00101000
10101000
00101000
00000000
11001010
00101001
10101001
11001011
11001011
00000000
00000000
00111001
00101001
00011000
10111010
00111010
10101000
10111010
00011000
00111010
10111000
00100000
00101000
10110001
11001010
10111001
10111001
11001010
00000000
10111010
10101000
10101000
10111010
00101000
00101000
00101001
00000000
10101001
10110001
00111000
00111010
10111001
10101000
10101000
10111000
11001010
10101000
00101001
10111001
00000000
00101001
10101001
10111001
10110000
10100000
10100000
10111001
00000000
10101001
00011000
10110001
00100000
10101000
10111010
11001011
10111000
11001010
10111010
11001010
10101000
11001011
00000000
10101000
00000000
10111010
10111010
00011000
11001011
10111010
10111010
10110001
10110000
11001011
10110001
10100000
00011000
10101000
10110001
10011000
00101000
10011000
00100000
00111010
10011000
10011000
00111010
00000000
00011000
11001011
10101001
10111010
11001010
00111000
00011000
10011000
10111000
00101001
10100000
10111010
10101000
10110001
11001011
10111000
00011000
10111000
10111010
10101001
00101000
00100000
10111000
00101001
10111010
10111010
10111010
00011000
10100000
10111001
10111000
10101001
10111010
11001011
10011000
00000000
10101001
00000000
10101001
10111010
10011000
00000000
00101001
10111010
00111010
11001011
11001011
00101000
10011000
10100000
00111010
10111001
00000000
10111010
10110000
10011000
10101000
00000000
10100000
10011000
00000000
10111001
11001010
10100000
00111010
00011000
10011000
11001011
00011000
00111000
10011000
00000000
10111001
00000000
10111010
10100000
11001011
10111001
00111010
10111010
00101000
10011000
10101000
00101001
00111010
10111010
10111001
10110000
11001011
00011000
00111010
00101000
11001011
10101001
10101001
00101000
10011000
00101001
10111000
10111010
11001011
10011000
00101000
10111010
00011000
10011000
10101000
00000000
11001010
00000000
10101001
00111010
00011000
00111001
10011000
10101000
10011000
00000000
00101000
00111000
10100000
10111010
00101000
10111001
00100000
10111000
00111010
00000000
10110000
10011000
00101001
10011000
10111000
10101001
10101000
10011000
00101000
10111001
10110001
00000000
10111001
00100000
10101000
10101001
10110000
00000000
10111010
10100000
00100000
10110001
10100000
00101000
00100000
11001011
10111010
10111000
10101001
10110000
10101000
00101001
00101001
10111010
10111000
00101001
00011000
00011000
10110001
11001010
10011000
00011000
00000000
10101001
10100000
11001011
10111001
10100000
10011000
11001011
10100000
00101000
00101001
11001011
00101001
10101000
10101000
00100000
00111010
00111001
00111010
10111000
11001011
10100000
00111010
00101001
10111001
00101001
10100000
10111010
10111001
10100000
10101000
10011000
00100000
00011000
10110000
10101001
10011000
10011000
00011000
10101001
11001011
10111010
10111000
10011000
00000000
10100000
00100000
10110001
10100000
10101001
10011000
10111010
00111000
00000000
10111000
10111000
10011000
00101001
00101001
00000000
00101001
10111001
11001011
10101001
00000000
10110001
10101001
10111001
00000000
10011000
00101001
10110001
10110000
10101000
10111001
00101001
10111010
00101000
10111001
10111001
00101000
10100000
10111010
00000000
10101001
10100000
10111001
10111001
10110001
00111010
00011000
11001011
00011000
00101000
00111000
10101001
00101000
10111000
10100000
10110000
00000000
00000000
00101001
10111001
10111001
10101001
10100000
00011000
00101000
10011000
00000000
00101000
00100000
00101000
00111010
00101001
10111010
10011000
10111001
10011000
00100000
11001011
00011000
10111000
10011000
10110000
10111010
10111010
00011000
00101001
00000000
10101001
10110001
00111010
10101001
10101001
10111000
00111010
00000000
00101001
01011010
01000010
01001010
01011010
01001010
00110001
01011010
01001000
01001000
01001000
01001010
10100000
01001010
10110001
10111010
11000001
10100000
01101101
11011011
10111001
00111000
10111000
11011011
01000000
11000001
11011011
00101001
11111101
11101100
10111000
11100011
11101100
10111010
01011010
01011010
01011011
11011011
10110000
01001000
01011001
00110001
01101100
10011000
11011011
00111001
11011010
00101001
01000001
11011010
11011011
11101011
01000010
01001001
11001010
11000000
11011011
01010011
01001010
10011000
01010011
11011011
11011011
11000010
01100011
01101100
01010011
01011011
01001011
01011011
11101100
11010010
01011100
01101100
01010000
00100000
01001011
01001000
00110000
11100100
10101000
11011100
11001010
11011000
11101100
01101001
11011010
11101100
01000000
01000010
00110000
00101000
10111000
00111010
10111001
00111001
10101001
10011000
10101001
00011000
01101100
01101100
01010000
01011011
01000010
00110001
00111001
10110000
11000010
10011000
01001010
00110001
01011010
01001010
01010010
11011011
11011011
01011011
01011011
01011011
00111000
11111101
11011001
11101101
11011010
01001010
11000010
11001010
01011011
01011010
11001010
01000010
10101001
11000001
10110000
10111000
01101010
01011000
01000000
00101001
01011010
00101000
11010011
01001011
11000010
11101100
11010011
10011000
01011010
01001011
01011010
01000010
00100000
01010010
11011000
11011100
10110000
11100000
11011010
11101011
10011000
11000000
11101100
01111100
01010011
00110001
01101100
10101001
01011011
11100011
00101000
01000001
01000010
01000010
01001010
00111001
01000001
01011100
11000010
11000010
11000010
01011100
01101101
01011011
10111010
10110000
00011000
00111000
10110001
01011010
11111101
11100011
11101100
00111010
11000001
01011011
10101000
11001001
01011011
11101011
11101010
11101011
00101001
11101100
11101011
11001010
01010011
11011011
11101011
11101100
10111010
11010011
11101100
11101100
01001000
10101001
11011011
00110000
11011011
11101010
01001011
11101011
11100100
10011000
10110000
00011000
00111001
01000001
01011011
10111000
01001010
01001010
00111001
10111001
11000010
01011011
01000000
01001010
01011011
00111000
01000010
01011100
00100000
01011011
11000010
11000010
11001001
11111010
11101100
11101101
00111000
10011000
11011011
10111010
01000001
01010010
11011011
10111000
01001010
11011000
11011011
11010010
11100011
11010010
11001010
11001011
00111000
11001010
01001011
10110000
00101000
11101100
11010011
11101100
10111000
00101001
11010011
00000000
11001010
11010000
01000010
01001010
01000001
00111000
01000001
10111010
01001010
00101001
00110001
01000010
11000010
11011011
11011001
11000000
11001001
01001011
00110001
11001010
10111001
11000000
10111000
00110000
10101000
01010010
10101001
01011000
01010000
01001010
00111001
01001010
00000000
01010010
01000001
01000000
01011010
01000010
10110000
01101100
01010011
11010011
10110000
01001010
11101010
01001011
00111000
10011000
00111010
01001010
10111010
00110000
01001010
01000010
01011010
00011000
01011011
01011010
00101001
11011011
11100010
10111000
10110000
11010011
11010010
01001010
01011011
01100010
01010001
01101001
01101100
11001011
01010010
00101001
01001010
10011000
11011011
11001011
01001010
11011010
11001010
01001010
10110001
10111001
11001010
11010011
01011011
11001010
10111001
01000010
10101000
00101001
11100010
11011010
01011010
11010010
01000000
01011010
01101000
01101011
01101101
10100000
00100000
00111000
00011000
10111001
10011000
00100000
10101001
00101000
01000001
10011000
11011010
00111001
00101000
01011010
10101000
10101000
01011011
11001010
11000010
11000010
00111001
01000010
11001011
01011011
01000001
00100000
01101011
01000001
00011000
01001010
10111010
01000001
11001011
10110000
00000000
01000001
10101001
10101000
00000000
00111001
10111001
01001010
11001010
11001010
00111000
10110001
11101100
01011000
11000010
11101100
01001011
11011011
11101100
00111000
01101100
01011001
11011011
01001010
01000010
00011000
01010010
01010011
11011011
11011011
10011000
11101011
11001010
01011011
11100100
11011000
11011010
01001010
10011000
11011010
01010011
01000000
11001010
01101100
01001010
00111001
00111001
11101101
11111101
01000010
11101011
11100010
00100000
11010010
11010011
11011100
10111001
11011011
00101001
00111000
11011011
11001001
11011011
11101011
11111000
11010010
00000000
11111100
11011011
00100000
11010000
10111001
10011000
11101100
00110000
01100100
11101100
01000001
01001011
01100011
01100011
01100011
11011100
10100000
11001010
11111101
11011011
10111010
11111100
11100011
11001011
11111000
11100011
11000010
11111000
11001011
10110001
11011011
10110001
10110001
01001000
01011100
10111001
10110001
01001000
11001010
00110001
01011100
11011010
11000010
01011000
00101000
10111000
01011011
01001010
00011000
01011010
01101100
01100100
01010010
01001010
11011011
11000000
01001010
11100011
11001001
10111010
01011011
01011100
11000010
10111000
10110001
11011011
11010011
11011000
11011001
01100011
01101100
01000001
11000010
01000000
01011011
11011010
10101001
00110000
11100100
11010010
10011000
11111101
11011010
11001010
11111101
11100000
10111000
00101000
11000001
11100011
11011011
11010011
11111110
00110000
11011010
11010001
01010010
01010001
01011010
01011011
10100000
11000010
01000010
11011011
11101011
00011000
11001001
11001010
11010011
10111000
10011000
11101100
11011001
10110001
11101100
10110000
00100000
11111100
11100001
10110000
11101011
11000000
00111001
11000001
11001010
00111010
11001010
11011010
10101000
11010011
01001011
01000010
11001010
11001010
01000010
11101010
11010011
11101100
11111101
11100011
11101100
00111010
01001010
11011011
01011011
11000001
11000000
01001001
11000010
11011010
11000010
11011001
00110000
10110001
11010010
11010010
00110000
10110001
11010011
00101000
01001010
01000000
00101000
11011100
10101001
11011010
11001010
11011011
01011011
01011011
01000010
11010000
01010010
11001010
11101011
11011011
11001010
11001010
00110001
00110000
11111110
11000000
01011011
11010010
11010010
10110000
10101000
10111010
10111001
00011000
10111001
10011000
10111000
00100000
00100000
01011011
01011011
01001010
11011010
01001001
11101011
11101011
11011011
11000010
11000010
10011000
01011100
11111000
11101100
10111001
11100011
11011011
11011100
00011000
00101000
11011010
11010011
10111010
10101001
11100100
11011010
11000000
10111001
00111000
11000010
00011000
11010000
11011000
11101101
11101100
11010010
00101000
01001001
11001011
11011010
01001010
10111001
11101100
11010011
11100001
01010000
01011001
01010011
11001000
10101001
01101101
00111001
01010001
10110000
11000001
01001011
10101001
01000010
00011000
11010001
11001000
00000000
10100000
01001001
01011010
01011010
00111001
10110000
01001010
11100001
11100011
11010011
01011011
00101000
01001000
10101001
11000010
11010011
11101011
11101100
11111101
01010011
10111010
01001010
01000010
11001010
00000000
11010011
11101101
11101011
00101001
01011010
00110001
01001010
11001001
01000010
01000010
01001010
00101000
11101100
00011000
10100000
11111101
11101101
11101101
11101100
00101000
01101100
11000001
11011011
11011011
00000000
11001010
00011000
00101000
00101000
01000010
10110001
00100000
10110001
00101001
11001010
10011000
01000010
10101000
11000000
00111001
01001001
10110000
00110001
11011010
11010011
11011011
11011000
11010010
01101100
01010011
01101100
10111010
01000001
01001010
10101001
01011010
11010000
10101001
00111001
10011000
10111000
01001011
01001001
11101101
01001010
01011001
10110001
00000000
11010011
00111000
11011010
11101100
10101001
11101100
11101011
01001010
00110000
10111010
11000000
01001000
01000010
11011000
01010011
01101100
10101001
10111001
10110001
10101001
11001001
11001010
00111010
00011000
01000010
01101101
00110000
01001001
00100000
01001011
11011011
11010010
11101011
11100010
11001010
00100000
01101100
11011011
01001001
01001000
01001010
00101001
10110000
00101001
11000000
01001010
01011011
00111001
00111001
01000001
01001010
01001010
01001010
11000010
11011100
01000001
01000010
00000000
10101000
01000010
01100010
01001010
10110001
10110001
01011010
10100000
00111010
10101001
00011000
01101100
11001001
11001010
11011011
00100000
01000000
01101101
00111010
00111010
00111000
10110000
00011000
01000010
10011000
11000010
11011011
01001011
11011011
10110001
01011011
11001011
10101001
01001010
01010011
01000010
01010000
01011000
01101100
11000010
11001010
01011011
11011100
11001010
11000000
11011001
10101001
10111001
11011001
11001010
01011011
00100000
11000010
11001000
01001001
01001000
11001011
10101000
11010011
01000010
01011011
10111001
11001001
01001000
01001001
00101001
00111001
10011000
10111000
10011000
10100000
10101000
10111000
00000000
00111000
00101000
01011100
01000010
00110000
10100000
11011011
00100000
00111000
01000010
00111001
11001001
11001011
01000010
01001000
11000010
11011011
10011000
01010011
11101100
11000001
10011000
01001010
11001000
10111010
11101100
11011011
11010011
00110001
11000010
11011011
11011100
00011000
10111000
11000010
10100000
01001001
11011000
11011011
00110000
11010000
11001010
11011001
11010011
11000001
11101100
10011000
10111010
00111010
10101001
10110000
01010011
01011010
01011011
01011011
10011000
01000000
01011000
01011011
01001010
01010001
01000010
00101000
10111000
11011011
11011000
01000010
11000001
10111000
10110001
11011011
10110001
11000010
11101100
10101001
00111001
11011010
11011010
11011011
11010011
11010000
11010010
11000001
00110000
00101001
11101100
11011011
00101000
11011001
01001010
11011011
00110000
10111001
01000010
01001010
11001010
10111010
01001010
10011000
10101001
01011000
00101000
00111001
11001010
01001010
00101000
01011010
01011001
01001010
11001011
11001001
11011011
11000001
11000010
11010001
11011011
11011001
11011001
10100000
10101001
01010011
11001010
10101000
11001010
11000000
11010011
11101010
10110001
10111010
00100000
00110000
00011000
11001010
10111010
00100000
01010010
01000010
01011011
01011100
01011100
11001010
01011001
01000010
01010011
10101001
11010010
11001001
00111001
11101100
11010010
10101001
11010001
11000010
11011100
00111001
10100000
01011011
11011011
11011100
10011000
11001010
11000010
11001010
11010010
11001001
11011011
11101010
11011011
01001011
00100000
01000010
01001010
11001010
11011100
11010011
11001000
11001001
11101100
11011011
11011010
11011010
11011011
10110000
01001010
11010010
10111010
00101001
11000010
11011011
11000010
10011000
11001010
11001001
01000001
10101000
11011100
01010010
10101000
11010011
10110001
11011011
11011010
01001010
01000010
11001010
01000010
10101000
11001010
11011010
10111000
11011011
11000010
01011100
10110000
11011010
10100000
11011010
10101001
01000001
10100000
00000000
00101001
11101101
10111010
11001001
11011000
11011011
00111001
11010010
11010010
10101001
11000000
10101001
01001011
11000010
10101000
01001001
01010011
01010010
01011010
01000010
01100011
01011100
11101100
11000010
01000010
00100000
11010011
01011100
00101001
00101001
01011010
01000010
11101100
11000010
11010000
11011010
00110001
10110000
11010011
11001010
11000010
11011011
11011010
11011011
10111001
00110000
01011011
11000010
00100000
00111000
11001010
00110000
11000000
11011011
01001010
01101100
10011000
01001001
01011011
10101000
00111010
00111000
00000000
00111001
00011000
10111000
10100000
00111001
11011000
11011011
11010011
10111001
01011010
01000000
11001010
01001010
10101001
11011011
11011011
11101100
11001000
00101000
11011010
10111000
10011000
11010010
11101011
00111010
01010011
11010011
01011011
01010011
01101100
01001000
01011010
11010011
11001011
00100000
11001001
10111000
10101000
01011100
00111000
11010011
11100011
11011010
01000010
11100010
11001000
01001011
11010010
11001001
00111001
10111000
11001010
00000000
11011001
01000010
00111010
11011011
01000010
11000010
11001010
10110001
10111001
11001000
11010011
10101000
01101011
01001010
11011100
11010010
11001010
10111001
11111100
01001010
01000001
11000010
01000001
10101000
11101011
11000001
11011011
11101001
11001010
11000010
11010011
00100000
11010011
10110001
11001001
11011011
11011011
11000001
11011001
11101100
11011011
11001010
01011100
11001010
11001010
00101001
10011000
01011000
11010010
11011001
10111010
11001011
00000000
00000000
11011100
11001010
01010001
11101100
01011011
01010010
00011000
10110000
10110000
00110000
11001010
10111010
11001011
00011000
01001010
00101000
00000000
10111000
00101001
01001010
01011011
01000010
01000010
00000000
11000000
00111000
00110000
01000001
00000000
11101100
01000000
10100000
11111101
11001010
11011010
10101000
11101100
00100000
01000010
11010011
01000010
10111001
11101100
01001010
01000010
11011000
10110001
01011100
00101001
01101101
01000010
10110001
00110000
01011100
01001011
01000000
11001010
01010010
01001010
11111000
10111010
00100000
01011100
11010011
11001010
01000000
11011000
01011011
00011000
10011000
10100000
10100000
10101001
11001001
00110000
10110000
11011011
01001000
11010010
11001001
11000010
10111000
11001010
11101100
11000010
10110001
11101010
10100000
10101001
11001010
10110001
10111000
10110001
10101000
00101000
10111010
01000010
11000010
10101000
00000000
00000000
01011011
10111010
11011011
10111000
01001010
01001010
01000010
00011000
00111001
01011011
10101001
11001010
01001010
00100000
10011000
01011011
10110001
10110000
01000010
11001010
11101101
00111010
10111000
00111010
00101001
11001010
10011000
01000000
00100000
01001010
00111010
00101000
10101001
00011000
11011011
11000010
11001010
11011100
01001010
00101001
00101000
01001011
10110000
11001010
11001011
01011100
01000010
01011100
01011011
10110001
10111010
11001000
11001001
01001010
11000010
11000000
00110001
11001001
01001000
01011100
10111010
01011100
00100000
01000001
10101001
11011011
10101000
01010011
10101000
11001010
01011001
10111010
00110000
11000010
00100000
11001011
00101000
10111010
10111010
10111010
00011000
00111010
10101000
10011000
00000000
00101000
10111010
11101100
01001000
00111000
00011000
00011000
11000001
11001010
01011010
00101000
00101000
10111010
11001010
01000010
01001000
10111010
01001011
00011000
01000010
00111010
00100000
10101000
11000000
11011011
11101011
11010010
10111000
11011100
00101000
01011011
10111000
01001010
11001000
11010011
11001010
01011100
10101001
00000000
01001010
11000000
11001010
11010011
11010011
11011100
11001010
01000001
01101010
10110001
11101101
11011011
01101100
01011011
01010011
11011011
01011011
10111010
01001010
01011010
01001010
10111000
01001010
11010001
10111010
10100000
00101000
10110000
10110000
00000000
11000010
11101100
11011010
01000010
11001010
11011010
00111010
00000000
00000000
10101000
11000000
00000000
11011010
11010011
11101100
01000010
01001010
11010001
11001010
11010001
11000001
01001010
01011011
01010001
11001010
10111010
10100000
00110000
10011000
01011001
01011011
00100000
01011001
01011011
10110000
01001010
01100100
01001010
10110001
10100000
00011000
00111010
11011011
11001001
11001010
00100000
10101000
10100000
00110001
01001010
10011000
11011010
11011100
11001010
11001010
10111010
00011000
00100000
00111000
10111010
10101001
10101001
00101001
11010010
00000000
00101001
11010011
11010011
10101001
00000000
00111000
00111001
01101100
01011010
01101100
11011011
10101000
01001010
11001010
11011010
11001010
01001010
10111000
11011011
11001010
10101000
10101001
11011010
11011011
11011010
11011010
10011000
11000001
11000010
00100000
01101100
00000000
11010010
11101011
01010000
01011010
01011010
10101000
00101001
01001010
00011000
00111001
00000000
00101001
10111001
11001011
00011000
11011011
11101100
00101000
10111010
11001010
11001000
10101001
10110001
00101001
11001001
11101100
00111001
11011011
11001001
01101100
01001000
11100010
00101001
00111000
10100000
10111001
10101001
11011010
01001010
01001011
10111000
10011000
11001011
01001010
11000000
10101000
11011001
11101010
11101100
11101011
00101001
11001000
11001001
01010011
00100000
11011011
11011011
11010010
11101011
00111001
01001011
10110001
00101001
11011100
11011011
11001000
11000010
11010011
11001010
00111001
11011011
10111000
10110001
10101001
01011011
10101001
11000001
01001000
10111010
00111000
01000010
11000010
01000010
01000010
11000010
00110001
11001001
01000001
00011000
00101001
01000010
00101000
00110001
00111000
00111000
11000001
00110000
00110000
10111001
00111010
01001011
10101000
01000000
01011010
11100010
10111000
01000001
11101100
00100000
10101001
01001010
01011001
00111001
00111000
00111001
00111000
10100000
00101000
10100000
00111001
00111010
00111001
11001010
01001001
00111010
00100000
10011000
10111010
00100000
11001010
11101101
11001010
10101000
00101000
11001000
10111001
11010000
11101100
11000010
11011001
01000010
01001000
01000000
01011011
00011000
01001011
01001011
00110001
01010000
00110001
00111000
10101001
01000010
01001011
10110001
01011011
11010001
11101010
00100000
01001011
00111000
01011100
01001010
00110000
11000010
01001010
00100000
00101000
00101001
01000010
11001010
01001010
01001010
11011011
11101011
11011010
10111010
01011001
11001000
01101100
01010011
00101001
01111110
10111001
11011100
11101010
01000000
10111000
11000000
00100000
01001010
10111010
01011011
01000010
00110001
10101001
00011000
01001011
10101001
11011000
11011001
11001011
11101100
00110000
11001001
11011011
01011011
00000000
00000000
01011011
01000010
11101011
11011000
11000000
00111010
11010011
00111001
01011011
10111010
10011000
00111010
11101001
00101000
01010010
11101010
00100000
10111010
11011011
11011011
11011010
11001010
11001011
00011000
11001001
11001000
10100000
11000010
11011011
10011000
11100011
11000010
01001001
11001001
11001000
01001011
01011001
01011010
01001000
01000001
10101000
11101011
01000001
11011011
11111101
01011010
11000010
11111101
11001000
00110001
01011011
10110000
01011010
01000010
00111001
11011011
11010011
00000000
01011011
10011000
01000001
00111010
01001010
01010010
00111000
01001011
00110001
00101001
11100100
01011011
11000010
11111100
01010010
11001011
11111000
01001010
01011011
01000010
10100000
10100000
00111001
11011001
11011010
11101101
11011011
11000000
10011000
11011011
11000000
00111010
11000010
11000000
10100000
00110001
01001001
10110001
00100000
10101000
11011000
01001010
11001010
11101000
00100000
11001010
10100000
00000000
11001010
11001000
00101000
10111001
10111001
11001010
10111000
00000000
11001010
11001001
00000000
00111000
11001011
10111000
10110000
10111000
00111010
00000000
10111010
10111000
10110000
10111001
10101000
11001010
10100000
10100000
11001010
11001010
11001010
00100000
10111000
10111000
10110001
10100000
00101001
10111000
10111010
11001011
00101001
10100000
10101001
00000000
10111001
11001011
11001010
10110000
11001001
00000000
10111000
10111000
10101001
10111010
10111000
10101001
11000000
10110000
11001010
00101001
11001010
00011000
00111010
11001010
00111000
10111001
11001010
10101001
11001010
10111001
00000000
00111001
10011000
10101000
10101000
10111001
10101001
11001010
11011100
10101000
00101001
00101000
00100000
10111010
11001010
10111001
00111010
00011000
10101001
10011000
00111001
00111010
00111001
00111010
11001011
00111010
10100000
10110000
00101001
10111010
11001011
10101001
00011000
00110001
10100000
10100000
10110000
00100000
10110000
11001010
10111001
10101001
00100000
10111001
00000000
00101001
10101001
10011000
00000000
10111001
11001010
10110001
10101000
10111001
00101000
00011000
10111001
10101000
00101000
10110000
00011000
00000000
10110000
00101001
10011000
10111000
10111000
00100000
10111010
10111010
10111001
10100000
10111000
11001011
11000000
00100000
10101000
11001011
00110000
00101000
10111000
10100000
10100000
11001001
10110001
10100000
10110001
00011000
10111001
10111001
00111000
00110001
10100000
10111010
10111001
10110001
10101001
00101001
10101000
00100000
10111001
10011000
00000000
00101000
10111000
00000000
10100000
00000000
10110001
10011000
10101001
10011000
10110001
00011000
10101000
10110000
00101001
10111010
11001010
10111010
10101001
11001010
00000000
10101001
11001011
10110001
00100000
10101000
00100000
00101000
11001011
00000000
10101001
10110000
10111001
10110001
10110000
10100000
10111000
11001010
10111010
10011000
10101001
10111010
10111010
11001000
11001011
10101001
10101001
11001011
00000000
00000000
11001001
10100000
11001011
10111010
11001010
10110000
11001011
00101000
10110001
10111000
10111000
10110001
10110001
10011000
00111001
11001010
00101000
10100000
11001011
00111001
10110000
11001010
10101001
10111001
11001010
10100000
10111010
11000000
10111000
11001010
10101001
00100000
10011000
11001010
11001011
00000000
11011100
10101000
00101000
11001011
10100000
10111001
10101000
00110000
10100000
11001010
10101000
10110000
11001010
10101001
10011000
10111010
11001011
11001010
10100000
00100000
10101000
10111001
10100000
10111000
00011000
00111000
00101001
10111001
11001011
01001010
01101011
01001010
01011011
01010011
01001011
10101000
11001010
00000000
10011000
01000001
10111010
00110000
11000001
10100000
11000010
11010011
00101000
10111000
11000010
11001010
00100000
10110000
01000010
01011011
01000010
01001000
00110001
11001010
11010011
11000000
01000010
11101100
00100000
01101100
00110001
10110000
10111010
10101001
00101000
11000010
01001011
11001010
10101001
00101000
10100000
01011011
10011000
00111010
01010010
11101100
11010011
00101000
01011011
00110001
11011010
01000010
01101100
01011011
10011000
01010010
01011001
10011000
10111001
01000000
01011000
01101100
01000010
01011001
00011000
01001010
11000000
11001001
00101001
01000010
01001010
10111010
01011010
01001010
11001010
11010010
01011000
01010011
01010011
00110001
10110001
01100100
11011010
11010010
00011000
00101000
10111001
00011000
10101000
10111010
00111001
10111001
10111010
01000001
11001000
10111010
01000010
01011011
11011011
11011100
00011000
11001001
10100000
11001011
11001010
00101001
00011000
11001011
01010010
01001010
00000000
01011010
00011000
00000000
01101101
01011100
01001000
11011100
11001001
00111001
10011000
00101000
10101001
11001010
01011010
01011100
10111010
01011010
01011011
10011000
11000010
11011011
01011010
00111010
11000010
10110001
11001000
11011011
00110001
01001010
10111001
11011000
11011010
11011100
10101001
01011011
10101001
10101000
00101001
01011000
11000010
01001011
01011011
11111100
11100010
11001000
11001010
11000010
01001010
01100010
01101101
01011011
01111101
10111001
10101001
10011000
11001010
11001011
01001000
10111000
10101000
11000010
00000000
00000000
10110001
01001010
01011011
00101000
01101011
01011010
11001000
00101001
01011011
11100010
11001001
01011100
11111101
11101100
11011011
11011010
11011010
11101011
10111001
01101100
01011001
01001010
11011000
11101010
01100011
01001011
10110000
10100000
11010011
11010010
11101011
11101100
11011100
11111101
11101011
11011011
11101100
00101001
01001001
11011011
11101000
11011011
11010011
11111100
11111101
00111001
00000000
10111010
01001010
01011000
01011011
11000000
00101000
01010011
10111000
01000010
01000001
10111001
11001000
11011011
01000010
01001000
00000000
01001010
11000000
10111001
01011100
11011011
01001000
10100000
11001000
01000010
00000000
01001010
00101000
00100000
01000010
01101100
11011011
01000001
01010011
01011011
10011000
11010011
00110000
11010001
00101000
11010011
01000000
01001001
11011100
11000010
11010010
11010011
11101101
11101100
11100011
11100001
11010011
11001011
11001010
01001010
11001001
00000000
01000000
10111000
00101001
00111001
00111010
11011011
01011001
11000001
10111000
01011001
00111000
11001010
01000001
11011001
10101001
00101001
11101100
01001010
11001010
11101100
10110000
10111001
11000010
11000010
11000010
11000010
11010000
11000000
11101010
11000010
01001010
11001010
11000010
10101000
11011011
10110000
10101000
11010000
11011100
11000010
00101000
10110000
10101000
11001001
10101000
00101001
11011001
11011011
00111001
10111010
11001001
01101100
11011100
00000000
01010011
01011010
01001010
01011011
10111000
00101001
00110001
01001010
00110001
11001011
11011010
11001011
11011011
00011000
01101101
01001000
01001011
01001010
01000000
10111000
00101001
01000000
10100000
01011011
01000010
10111010
01011100
00110001
10110001
01001001
01011011
00111001
01000001
10011000
10101001
00100000
11011100
10111001
11010011
11010010
10111001
10111000
10101001
10111010
10011000
00111010
00111010
00101001
00101001
11001010
01011100
10011000
11011011
10110001
00100000
11101101
00111001
00111001
11000000
11011011
11001010
11000010
11000010
11000010
11100010
11011011
00000000
11001001
01010011
01011011
11001011
01000010
01001001
01010001
01010010
11001010
00110000
11000001
01001001
01001000
10100000
10101000
10110000
01011100
01001010
00000000
01000010
01001010
00111001
00111001
10111010
01011011
01001001
01011100
11010000
11010010
11010011
10100000
11101011
11011010
11001010
11011010
11101011
10101001
00100000
10111000
11001001
01001010
00110001
10111001
10101000
10011000
01000001
01010011
01000010
10111010
01001010
01011010
01011010
00111001
01011000
00110001
00101001
11000010
01000001
10111010
10100000
10111010
00011000
01001001
11000001
11011000
11011000
01000001
00000000
11001011
00100000
10110001
10100000
00101001
01001010
11000000
11011011
10100000
11010001
11010011
11010010
11011010
11000000
00101001
00110000
11001010
11101100
11100100
11000010
11100100
11011010
10100000
10100000
11001010
10100000
11001010
00000000
00011000
10100000
11011100
11001010
01001010
11001010
11011011
00111000
11011010
11011011
11011011
11011011
10011000
11001010
01101100
10101001
00011000
01010000
00100000
01001010
01010011
11010011
11101101
11101100
11001000
11011010
11101011
11010001
11101101
11010011
10011000
01001010
01001001
10111000
00011000
01011010
01010011
01011100
00101001
01010011
11010001
01101100
00101001
11011010
01010011
00111000
10101000
01101100
11001011
11000000
10101000
01011011
10111010
10111010
01011001
00000000
11001010
11001011
00111010
00011000
11001010
11001010
11001001
11001001
11000010
10100000
00110000
10110000
10101000
01000010
10111010
00000000
00111010
11001001
01011011
10111000
11001010
10111000
00011000
00000000
10110001
10101000
00100000
11001011
00101001
00011000
00011000
10011000
00111000
00000000
10110000
11001010
10011000
10101000
10100000
00111010
10011000
00101001
00011000
00000000
10111001
00100000
10101000
10111000
00000000
00101000
10011000
00000000
00101000
00101001
00100000
00000000
10110000
10011000
00000000
00101000
10011000
10110000
10101001
00000000
10111000
10110000
10110000
00101000
10101001
11011100
11001010
00100000
10110001
00000000
10111010
10101001
10100000
00000000
00011000
10110001
00101001
00101001
10111000
11001011
10100000
10111000
00000000
10100000
10111000
11001010
00000000
00011000
00000000
00101001
10111010
00111001
00101000
10111000
10101001
00101000
00111010
00101000
10110001
11001011
11001011
10111010
10011000
11001010
10101000
00011000
10101000
10111000
10100000
00101001
00111000
00101000
00101001
00111001
00000000
10110001
00101001
10111010
00111001
11001011
10111001
10111000
10111010
10111001
00000000
00011000
10110000
10111010
00110000
10100000
10111010
01001011
00111000
10101000
10111010
10110000
10110001
10110001
10111000
10110001
10111000
10110000
11001010
10111001
00101001
00000000
10100000
11001010
00101000
10111000
10101001
10011000
11001010
10101001
10100000
00111010
00101001
10111001
00101000
00101001
10101000
11001001
00101000
10011000
10011000
10101001
10111010
10011000
10110000
11001010
10101000
10110000
10110001
11001010
11001010
00111010
00000000
00100000
00101000
10111010
10101001
00000000
10111010
00000000
11001011
10101001
11001010
10110000
10111001
10011000
11001010
10110001
10101001
11001010
10011000
10110001
10111000
10101000
11001011
10101001
10101001
10110000
00101001
10110001
00011000
10111010
10100000
10111010
00101000
00011000
00011000
00111010
10111010
10011000
10100000
10101000
10111000
00101000
10101001
00100000
10100000
10011000
00000000
10100000
10111000
10100000
11001010
11001010
10110000
11001001
10101001
10111001
10111000
10111000
10100000
11001010
10111000
00111010
11001010
10111000
11001011
10100000
10111001
10101001
10011000
10100000
11001000
00011000
00111000
00100000
00101001
10011000
10101001
00101000
10011000
10110001
10100000
10101001
00011000
11001010
11001010
10101001
11001010
10110001
00111001
10011000
10111001
00111010
11001010
10110000
11001010
10101000
00101000
10110000
01001011
10011000
10110000
10101000
11001010
11001011
11001010
10111010
10111001
11001011
11001010
10100000
00101000
11001011
10111010
10111010
10110001
10101000
10111000
00101001
10111010
10111000
10111010
10101001
10011000
10011000
00101000
10111001
00111010
00011000
10111000
00011000
00000000
10100000
11001011
10011000
00011000
00011000
00101001
10100000
00111010
00000000
10111000
10111000
11001010
00100000
11001011
10101000
10101001
10110001
10110001
10100000
10101001
10111001
10100000
00011000
10011000
10011000
10011000
00100000
00101001
00101000
10011000
00011000
10011000
10111000
00111010
10111001
10111010
10101001
01001011
00011000
10101000
00101000
10110000
00011000
10111010
00101001
00111010
00000000
00111010
10101001
11001011
10101001
10111010
00101000
10110000
00101000
10100000
00011000
10101001
10011000
00000000
10111010
00101000
10101000
00111010
10101000
10110000
10111010
10011000
10111010
10011000
10111001
10101000
10101000
00011000
00101001
11001010
10101001
00111000
10101000
00101000
00000000
10100000
00101000
00101000
00011000
00000000
00000000
10111000
10011000
00111010
10101000
00011000
00101001
00111010
00111001
10101000
10111010
10011000
00100000
10111000
00011000
10011000
11001011
10110001
10111010
00000000
10111001
00011000
00011000
10111010
10101001
10110001
10011000
10111000
10011000
00111000
10110001
10111010
10111001
11001010
11001010
10101000
10100000
00111001
10111000
00011000
10101000
10101001
11001010
10101000
11001010
11001010
00000000
10111010
11001011
00000000
11001010
10101000
10111010
10111000
10101000
10111001
00100000
10110000
10111000
10111000
10111000
10111001
11001010
00011000
10100000
10111000
00101000
10101001
00111001
00101000
00101000
10101000
00000000
00111010
10111001
10111010
10110000
00011000
00011000
00000000
10101000
10111010
10100000
10110000
00101001
10111001
10110000
10110001
10101000
11001011
11001011
10110001
11001011
10100000
10110001
10100000
00000000
10111010
10100000
10111000
00000000
11001011
11001010
10011000
10011000
10111001
11001011
00011000
10111000
00011000
00101001
10100000
00011000
00101001
00011000
00000000
10111000
10011000
00101001
00100000
11001011
10100000
10111001
10011000
10100000
10111010
00111001
11001011
11001011
11001010
00101000
10011000
00101001
10100000
10110001
10111001
10011000
10011000
00000000
10100000
10111000
11001010
11001010
10110001
10111010
00101001
10111001
00011000
00011000
10101001
00100000
00111010
10011000
00101001
10111001
10111001
11001010
10100000
00000000
10111000
10111010
00111010
10110000
00101000
10101000
10111000
11001011
00000000
10101001
10011000
10011000
10100000
11001011
00101001
10101001
10111001
10110000
10111010
00011000
11001011
10101000
00011000
10111010
00111010
00111010
10110000
10111010
10111001
00101000
10110000
10111010
10111010
10111010
10101000
11001011
00101001
10100000
00101000
00111000
01000010
01100010
11010000
00111001
01101011
11000010
00111001
01100001
01001011
00111010
01001010
11000000
00111000
00111010
10011000
10110001
01001000
01010010
11011011
11011010
01101100
10100000
11011011
01000001
10011000
10110001
01001001
11010000
11100100
01101101
01011011
11101011
01001010
01011011
00011000
10011000
11001011
00101001
10110000
00000000
01010000
10111010
10111001
01010011
11001000
11010001
11010011
10101001
00100000
01001001
10111000
01001000
01101100
10110000
10111001
11001010
01010011
01001000
01010010
00111001
01011011
01000010
10101000
01000010
01010001
11101100
11011010
10111010
11011011
11001010
01010011
10110001
01011011
01011011
11101100
10111010
00100000
10111000
11010010
10111001
11011100
00000000
11001010
11010011
11101011
01011100
10110000
11010001
10100000
10101001
10100000
00111001
00101001
10101001
00101001
00111010
10100000
00111001
01101100
01010011
01101101
11001010
01000010
01011001
00100000
11011001
01011010
01011011
10100000
10110001
00111001
00000000
10110001
01001010
11001000
10101001
10101000
11000010
11001010
01011011
11001010
10101000
00011000
01011011
01000001
01001010
10101001
00111000
00011000
00100000
01001010
10101001
00110001
00101000
01001010
00011000
10111000
00110001
00011000
11000010
11000010
10111000
10101000
01101010
01000000
11101100
01011000
01000001
11000010
01001010
11000001
11011000
11111100
11100100
11101100
11010010
01011010
11101100
10111010
00100000
01011011
11101100
00101000
01101100
10011000
11001010
01011011
01000010
00101001
01010011
01011010
00110000
01001011
11001010
00011000
01001001
11010011
11011011
00011000
00110001
11011011
00101000
01011010
01011000
00111010
00101000
10111001
11001011
00101000
01000010
10110001
11010011
11001010
11011011
11000010
11010011
11100001
01001001
10110000
10111000
00011000
11101011
11001001
01010010
01011010
11010011
10111000
11101100
11111000
11001001
01001010
11100100
00101000
11001010
11000010
11010010
11001011
10100000
11101010
11010010
01000010
11101100
11101100
11101100
00100000
10111000
00100000
11001011
00110001
01001010
00111000
01011011
01101011
01100011
01101100
01011000
01010000
00111001
00111001
01010011
11000001
11011000
01000010
11101100
11001010
00110000
11011010
11011011
01000001
01001010
01011011
00011000
00110001
01010001
11001010
00100000
01010010
11001001
00111001
01101100
01101011
11000010
11010011
01010010
00110001
11010011
01010010
10101001
10011000
11001010
11010011
11111101
11011011
00111010
11111011
10111000
11011010
11101011
01001010
01001010
01011000
10100000
10101001
01101101
11010010
11011011
01010011
10111010
00111000
10100000
00101001
10101001
00111000
10111000
11001011
00000000
10111001
10111010
10111010
11001011
00111001
11001011
00100000
00101000
10111000
00111010
10111001
00111001
10111010
10101001
11001011
00101000
10111001
10111010
10101001
10111000
00000000
00111010
11001011
00111001
00101000
10111000
00111010
10100000
10011000
10100000
10111010
00101001
10111010
10101001
00101000
00111010
00000000
00111001
10101001
00101000
00011000
10110000
11001011
10101001
00000000
10111010
00111010
00111010
10101001
00100000
11001011
10111001
00111001
00101001
00000000
00000000
10101000
10111000
00101000
00011000
11001011
00000000
00011000
00101000
10111010
00000000
10111010
00111010
10011000
10101001
00101001
10111001
00101000
00101001
11001011
00101001
10111000
00111010
01001011
00101000
10111001
00100000
00111000
00011000
00011000
10101001
10111010
10111000
00101001
00101001
00101000
00111001
00111001
00111010
10111001
00101001
10100000
00111001
10011000
10111000
00101000
10101000
11001011
00111010
00101000
00111010
10111000
00101001
10101000
00000000
10101000
10111010
10101000
00111001
10011000
10101001
10101000
00101001
00000000
00111000
00101001
10101001
10100000
00100000
10101001
10111010
10101001
10101001
00100000
10011000
00000000
10101000
10101000
11001011
00101001
00111010
10111001
10101000
10111000
10111000
00101000
10101001
10100000
00101000
10101000
10011000
00111001
10111001
00000000
10110000
00011000
00101000
00101000
10110000
10110001
00101001
10101001
10111001
10111010
00101001
00100000
10111010
10110001
11001011
10111001
10100000
11001011
00100000
00111010
00111010
00011000
10111001
10011000
00000000
00011000
00111010
00101001
11001011
00101000
00101001
10111001
10100000
00111010
10100000
00000000
10110000
10111000
10111010
10111001
10011000
00111010
00111001
10111001
10100000
10111000
10100000
00111000
10111001
00101000
10101000
10100000
11001011
00101000
10011000
00111010
00101001
10110000
00101000
10111000
10110001
10111000
10111001
00011000
00011000
10101001
00011000
00111000
10101000
10011000
10111001
00000000
00000000
10101000
00101000
10111000
10101001
10011000
00101000
11001011
10111001
10111001
10111010
00000000
10011000
10111000
11001011
10100000
10111000
00011000
00000000
00000000
00011000
00100000
00011000
10100000
10111000
00101001
10011000
10101001
10111010
10111000
00111010
00111010
10101001
00111001
10111000
10111010
10101000
00101000
00011000
10100000
00111001
10011000
10111010
00101000
10101001
10111000
00011000
10111010
10110000
10110000
00011000
10100000
10101001
00101000
10101000
11001011
10111010
10100000
11001010
11001011
10110000
00111001
11001010
10011000
10101000
00101000
10101001
10111001
10100000
00101001
10011000
10110000
10111000
10111001
10011000
10111000
10011000
10110001
00100000
10100000
11011100
11001010
00000000
11001010
10011000
00111000
10011000
10111010
00011000
11000010
11001010
10101001
00101001
10011000
00011000
00000000
10110000
11001011
11001011
10111010
10110001
10111001
00000000
10100000
00011000
00100000
10110001
00000000
00000000
10011000
10110000
10111001
00101000
00101000
10101001
11001010
10111001
01001011
10111010
00101000
00111010
11001011
10111000
11001010
10111010
10110000
10111001
10011000
10101000
10111001
10110001
10100000
00011000
11001011
11001010
10111010
11001011
10110000
11001010
10101000
00100000
10101001
11001011
10111001
10111010
10101001
00111001
00100000
10111001
00111001
00100000
10101001
10101001
10111000
10101001
10101001
00111001
10011000
11001010
10111000
10100000
00100000
00101001
00000000
10011000
00101000
10011000
10110000
00000000
10101000
10110000
11001010
00000000
10110000
10111001
10111000
10011000
10101001
01001011
00000000
10100000
10111000
11001000
10110001
11001010
10101000
10111010
10111000
11001011
00000000
10100000
10101001
11001011
11000000
11001010
11001010
10111001
00000000
10111010
10100000
10111000
10011000
11001010
11001010
10101001
10110001
10111010
00111001
10100000
00000000
11001000
00111001
10101000
10011000
00111010
10111010
11001001
10110000
00101001
10111001
10111000
10101000
10101000
10111010
10101000
10111010
10101001
10110001
10101001
11001001
10101000
10110001
10110001
00011000
10111001
10111000
10111010
10101000
00000000
10111000
10100000
10101000
10111000
10110001
10101000
10101000
11001010
00011000
00000000
10110000
10111001
00111001
11001001
10101000
00101001
00111010
10111001
10111010
00101000
10100000
10101000
10101000
10101000
01001010
10011000
10111010
10111010
10011000
00101001
00111010
10111000
10110001
10101000
10111010
10110000
00101000
00011000
10101001
01001011
10011000
10111010
00101001
00000000
10101001
00011000
00011000
10111000
11001011
00101001
00011000
00101001
00011000
11001010
00101001
10111010
10111001
10111000
10100000
00000000
11001011
11001010
11001010
00011000
00000000
10110000
00101001
00101001
00100000
00111010
10111010
10111001
00100000
11001010
10100000
00101001
10111010
10011000
11001011
10100000
00101001
00111000
10101000
10110001
10110000
11001011
10101000
10101000
10101001
00101000
11001000
00000000
10111010
00101001
10111001
10111010
10011000
00111010
10111010
10111001
10101001
00000000
10101001
10101000
10101001
10111001
10101000
01000000
01011011
00110000
11011011
00111001
11001000
00111010
11001011
00101001
11011100
10110001
11011011
01010000
01001010
11101011
01001001
01101101
01000001
01001010
11011011
11011011
01000010
10101000
11011011
10101001
01011100
01010010
11011011
11011011
11010011
11011010
11101011
10111001
11011011
10100000
01000001
11000001
11011010
11010011
01010010
10101001
11011011
11000001
11011011
11001010
11001010
01000000
01001010
11011011
11001000
11001010
11101100
10111010
01000010
11001001
11011001
01000000
00111000
10110001
11011011
11100010
11100100
11101100
00111001
00111001
10111000
00101000
00111010
11001011
01000010
01011011
01001000
11011011
00101000
11001001
10101001
00111001
11101100
01011100
01011010
11001010
00000000
11010011
11111101
01011010
01001001
11011011
01010001
01011001
00000000
10101000
10111010
10011000
00011000
10100000
00111000
00111001
10100000
10111001
01000001
01001001
00110000
11001011
00110000
11000001
01011011
01011001
01011010
11001011
11011011
11000010
01010011
01000010
11000000
11001011
01011100
01000001
11000010
00100000
01011011
11010010
11011100
11011011
10011000
10110001
11000010
11001010
01001011
10111010
11011100
11011011
11011011
11001000
11011100
10111001
10111001
01011011
01011011
10110001
10110000
11001011
01000010
01000001
10110000
01000001
00110000
01000010
10111010
00111010
10011000
11001011
11100011
11011011
11011011
11011100
11011010
11010010
11010011
11011011
11011100
11001011
10111001
11000010
10111001
11101101
00110001
00101001
10110001
01011100
01001010
10100000
11000010
00101000
00110001
01000010
00101001
10111010
01001010
00111001
00011000
01011010
01001010
11001010
11011011
11000000
00111001
10111000
11000010
00111010
11001010
11001010
11011010
01001010
00000000
11001010
11011010
10100000
11001011
01010011
11011001
11100001
01101101
01001001
11011010
01100011
01001000
01011010
11001010
11011010
11001010
11000001
11001010
10110000
11010001
11000000
10111001
11000010
11001010
10110000
01000010
01001010
11000010
00011000
01010010
11000010
00100000
00100000
00111001
11010011
11000010
10101001
11011011
10100000
01010011
01011010
01001000
01001001
00111000
01011011
00000000
01011011
11101011
11100011
10101000
01001010
00111001
11101011
00000000
10101001
11101101
11011011
11011010
01000001
01010011
01010001
11010000
00110000
00011000
11010001
11101100
10110000
01011011
10011000
01011100
11010000
11001010
00111010
11000000
11100000
11101010
11011100
11000000
11001010
11001000
11001000
11001010
11000010
11001010
10100000
11001011
10101001
00111001
10111000
00101000
10101000
01000010
10111010
01001011
00101001
00100000
00101000
10110000
11011011
11000010
10111000
01011011
01010011
00011000
00100000
01011010
11011100
01001010
01101100
11001001
01011011
01011011
00011000
11001010
00110000
01001010
11010011
01011010
11101100
00011000
01000000
11010011
11011001
11000010
11011011
10111001
10011000
11001001
11101010
01000000
01011011
00100000
10111010
00011000
11000001
01101100
01001000
11000010
11001000
11010011
01011100
01011011
11000010
01010001
11101100
01011000
01011011
11000001
11001010
01001010
01011000
01001001
00111010
01000010
01001010
11001001
00110001
01011011
10111010
01001001
01000000
00111000
01010011
01000010
01101010
01000010
01001011
00000000
00011000
00000000
10111000
10100000
01011010
01000010
10100000
00110000
11101100
11010011
11001010
11100100
01001000
11001001
01001010
01101010
00111000
10111000
00000000
00000000
00100000
10101000
10100000
10101000
00000000
00101001
01001001
01101100
01000010
01011100
01011010
10111010
01011010
00110001
01001010
00111001
00000000
01001010
11000010
01011010
11011000
11011011
10100000
11000010
01001011
01011011
01011100
01001000
11001010
01101010
00111000
11011011
00000000
01001010
01000010
01101101
01001010
11001010
01001010
00110001
01000001
10110000
01011011
01000010
10101000
00110001
11011011
01101011
01001010
11010011
01011011
11101101
01101011
11011010
10101001
01010011
11101010
11101100
10111010
11101011
01001010
11010010
11011011
01010010
11011011
01100011
01000001
10011000
01011100
00111001
11000000
11011011
10011000
10110001
01100100
01101010
10101000
01011011
01011011
01001001
10011000
00111001
11011010
01001010
11011011
11100011
01010010
00111000
01000001
01010011
01001010
01011010
00111010
10101000
10101000
01011000
11101100
11101100
11111110
11100100
01011010
11111101
11101011
01011010
01001001
11101100
01010000
01001011
11010011
01101011
11000010
01000010
01100100
11010011
11011100
11000000
11000010
11011010
10111000
11000010
11010011
11001011
11010010
11111101
11111100
11100100
11111100
11001011
11010010
11011011
01010001
10100000
10111001
00000000
01001001
10110001
11101100
00110001
01001010
11000010
01010011
11010011
01010011
00011000
10110000
01101100
11101000
11001000
01011011
10110000
01000001
11001010
10111010
01011011
11001001
01101011
01011011
10101001
11001010
10111010
01011011
10110000
00111000
11101000
01011011
10101000
11100011
11001011
11001011
01011001
11011011
00110001
01000010
11011011
10110000
10101000
11001011
11011010
11010011
00111001
11101100
00100000
11000010
11010011
00110000
01001000
00111010
00111001
01001010
00100000
11011011
11001001
11011011
11010000
00100000
01001010
01101100
01011011
01011011
01001011
01011011
01000001
01001010
11001010
01010010
01001010
10111001
01001010
10100000
01011010
10101001
11101000
10101000
00000000
10111010
11011100
10011000
00110000
00011000
01011011
01010000
01001000
01011010
10011000
11011011
11010000
01011100
11101101
10111010
01011011
10011000
10101001
10101001
10111001
11001010
01001010
10111010
01000010
01010010
01010010
01101100
01000000
01000010
11011100
11010011
00110001
11101100
11101001
01010010
01101011
01011011
11000001
01011011
01100100
01011010
01100000
01111101
10111001
10111000
01011000
10101000
01000010
01101100
11101011
11011011
11011011
11001010
11001001
11011000
00110001
01011010
00110001
01001010
11000001
11101100
11101000
11011010
01000010
01001001
01001001
11111101
10111000
00110001
11101010
10111000
00011000
00011000
10111010
10101000
00011000
10101001
00111001
10111001
01011011
00000000
00011000
00101000
01011010
01001010
00111001
00110001
11001000
10100000
11011100
11000010
10110000
01001010
01011100
00101001
01011010
01001010
01101100
01101101
10111000
00111000
11001000
11000010
11100100
11100100
11010011
01001011
01011010
01001011
01001000
10011000
10101000
11010010
11001010
10110001
01000010
01000001
11000010
00101001
00110001
10111001
11101011
11010011
11011010
11101100
10111000
11101100
11011011
11010011
11001010
01000010
01010001
01010010
01011011
01011100
01101100
11011100
11011011
10111000
11101100
11100100
11101010
01010000
00100000
10100000
01010011
01101100
