00000100
00001111
00010101
11111001
11101010
11111001
00000101
11110111
11110001
00000101
11101011
11110000
11111011
11110110
11101000
11110100
11111110
11111110
00000101
11101110
11111101
11100001
00000101
11111011
11100000
11010011
11110000
00001100
11101011
11100001
11111010
00001000
11101010
11100110
00011000
11100010
11101000
11011010
11110100
11111000
11111011
11111100
11101111
11111111
11010100
11111111
11111001
00100111
11100111
11011010
11101111
11111011
11110101
11111000
11110110
00010000
11110011
11110000
00001010
11111101
11111010
00000011
00010101
11011101
