00010110
00001000
00100101
11110011
11111100
00000111
00011111
11111000
11111000
00001110
00001100
11111001
11101111
00010001
00001110
00000000
00001110
00000010
11011110
11111000
00000110
00011000
00001100
00001101
11101001
11110001
00000101
11110010
00010011
00100010
00000011
11111100
11111000
00010011
00011011
11111100
00101000
00110011
00000010
00000010
11101111
00100110
00000111
00010000
11111111
00011001
00100001
11110111
00011010
00001010
11100111
11111111
00100011
11110010
00001110
00000001
11101110
00000110
11111010
00011110
00000011
11101111
00000100
11110011
