10101001
00100000
11010011
11001010
01000001
01001011
11101000
01001010
11001001
11011010
01000000
10111010
11011011
11101100
11100010
01101101
01001010
01011011
01000001
11000000
00101001
10110001
11010010
01011001
01010011
01000010
01101100
01011011
00111010
10111001
01000010
00101000
10101000
01011011
11101100
00000000
11011000
11001000
11000001
00110000
01000010
11011011
01011011
10111010
11001010
11000010
11111101
00110000
11001001
11101010
10111000
00110000
10101001
01011100
11000001
00000000
01011011
01001010
01011010
01001010
11101000
11001010
11001010
01001011
01011011
01011011
00110001
10110001
01001000
01000000
00101000
10100000
00000000
11010010
11000010
11010011
11011011
01001001
11010000
11000010
01010010
01001010
11010011
00011000
11011011
01011010
11010001
01001010
11100010
11000010
11111100
10111000
01011011
01010010
11111010
00111000
11001000
11011011
10100000
00100000
01101011
01000010
01000010
00101000
11011011
01011011
10111000
01101011
00101000
01011000
10101000
10110001
11010011
11010001
11101100
11001010
01001010
00100000
01001001
10101001
11000010
11101011
10100000
11101100
11111100
11001001
01000000
00100000
10011000
11010000
01001010
11011100
11101001
00111010
00101001
00011000
10110001
01001000
01001001
01011010
11010001
10101000
00110000
01001000
11101100
00110001
00000000
00011000
10101000
11100011
11010011
11010011
11010000
11010011
11010011
01010011
01001001
01001010
11101011
00110001
10110000
00111001
01011011
01001010
01000000
01001010
01101101
00110001
10111000
00100000
11001010
11101100
00000000
11011010
01101010
11000010
00110000
11101011
01011011
11111101
11001010
01001001
01000010
10110000
10111001
01011011
00111000
01010010
10111010
11101101
10110001
00000000
11011011
11101100
01011011
11011100
11101100
11010011
01000010
11001001
11001000
11010000
00111010
11011010
11001010
10111001
01001011
10101000
11101100
01000010
00101000
11001010
11010011
00111000
01101101
01010011
11101011
11010010
11101001
11100001
11011000
01011011
11101011
00011000
00111010
01011011
01000010
10110000
01011010
10101001
00111001
11001010
00101001
00110001
01001010
11100001
01001010
11001010
01010001
11101101
01001001
01000010
00111010
01011100
01000000
10111001
10111000
10101001
11001010
00101000
00011000
11011000
01011011
11000001
11010011
11101011
11101010
01001010
11010011
11011010
01010010
11011011
01001010
00110001
00111010
01010000
01011011
01001000
01011000
01011011
10100000
11001010
11010010
00110000
11010010
11001010
00111000
01101100
00101001
11011001
11001000
01011011
11010011
01011011
00111001
11100010
01010000
00111010
11001010
11100011
11101100
11001011
11000010
01011001
11011001
10111001
11000010
00111000
11101011
11010000
10111010
11101100
11011011
11001001
11010010
01011100
11011100
00011000
01000001
11000000
00000000
10111000
11000010
00111000
11011011
11100011
11100100
01001001
01001001
01000010
11101100
00111000
01011010
01000000
00101001
01011100
01001001
11001010
10110001
00111010
11011011
11000010
10101001
11010010
01001001
10101000
00111000
11101011
00000000
00011000
01000010
10101000
01010001
11111101
00101000
11001010
01011010
11100011
11001010
11101100
01011011
10101000
00111010
00111010
11010011
11001010
01001010
11101101
11011011
10111000
11001010
00101001
11001010
00000000
10101000
01010010
01101101
01011011
01001010
01011011
11001000
01101101
11101100
11001001
11000010
00011000
10111010
01000010
11001010
00111001
01001001
10101000
11000001
11011011
01010011
10101001
01000010
01000000
11010011
01011011
11101011
10100000
00101001
01011011
00101001
00110001
11011100
00000000
11111101
11101100
01010010
11111101
01011011
00111010
00111000
01010001
00101000
11011011
01000010
00111010
01101100
00011000
11001000
11101010
01001000
01001010
11001000
10110000
11100010
11001010
10111010
11011010
01001011
10101001
11001011
11100011
10101001
00111001
00110000
01010000
01101101
01000010
11000001
10110000
00101000
10110001
01000000
00100000
11101100
00111010
00101000
00101000
00000000
01010011
10111001
10111001
11001000
01000010
01101100
10110000
01000000
11000010
01101101
11011010
01001010
11001010
11001001
01001011
11011011
10111001
01000001
01010010
01101100
01001000
00101001
00111001
11111101
00101000
10111010
11111101
11001010
01010000
11011010
01000000
11111101
01001000
00101000
01000010
11010011
01001010
10110000
10110000
00110000
10110000
11001011
10101001
01010000
00000000
10111001
01000010
01001010
00101000
10100000
11101101
11101100
11010011
11001001
11001011
00100000
10111010
11010010
10111001
01001010
10100000
10110000
11001011
11010011
11010001
10111000
11001011
10101000
01000010
11000000
01001011
10111010
11011010
11101001
11000010
11000000
10101001
11011100
01000010
00101000
01011011
11011010
00110000
11101011
01001010
00101000
01011011
10100000
10111010
11010010
10100000
01011000
11101100
10111000
11011011
01000001
01011010
11101010
10100000
10111001
00100000
00100000
11011010
11011001
10100000
10111000
11001010
00111010
10101000
10100000
11000000
00110000
10011000
01001001
10111001
11001010
01001001
01000001
01000010
11001011
00101001
00011000
01001011
01000001
10111010
00101000
11010011
01000000
01011011
01011100
10110000
11000001
00111000
11111000
00101000
11011001
11001000
11011011
11101011
01001010
01001010
10011000
11011100
00101000
10110000
01010010
01001010
10111000
10110001
11011100
01010010
10011000
10100000
10111001
11000000
01001010
00111000
01000001
01010010
01010001
11100010
11001011
11001010
01011010
00110001
01001011
01001010
11101011
00110001
11001001
11010011
11101010
11001011
11011100
10111010
11010011
00110000
00100000
11101100
11101100
00011000
01001010
01000010
01000001
01000010
01001010
11011100
01000010
10111001
11000010
10111001
00101000
11100100
01011100
11001001
11011100
11011100
